{
  "version": "1.0",
  "truncation": null,
  "padding": null,
  "added_tokens": [
    {
      "id": 0,
      "content": "[PAD]",
      "single_word": false,
      "lstrip": false,
      "rstrip": false,
      "normalized": false,
      "special": true
    },
    {
      "id": 1,
      "content": "[EOS]",
      "single_word": false,
      "lstrip": false,
      "rstrip": false,
      "normalized": false,
      "special": true
    }
  ],
  "normalizer": null,
  "pre_tokenizer": {
    "type": "Whitespace"
  },
  "post_processor": {
    "type": "TemplateProcessing",
    "single": [
      {
        "Sequence": {
          "id": "A",
          "type_id": 0
        }
      },
      {
        "SpecialToken": {
          "id": "[EOS]",
          "type_id": 0
        }
      }
    ],
    "pair": [
      {
        "Sequence": {
          "id": "A",
          "type_id": 0
        }
      },
      {
        "Sequence": {
          "id": "B",
          "type_id": 1
        }
      }
    ],
    "special_tokens": {
      "[EOS]": {
        "id": "[EOS]",
        "ids": [
          1
        ],
        "tokens": [
          "[EOS]"
        ]
      }
    }
  },
  "decoder": null,
  "model": {
    "type": "BPE",
    "dropout": null,
    "unk_token": "[UNK]",
    "continuing_subword_prefix": null,
    "end_of_word_suffix": null,
    "fuse_unk": false,
    "byte_fallback": false,
    "ignore_merges": false,
    "vocab": {
      "[PAD]": 0,
      "[EOS]": 1,
      "\u0003": 2,
      "\u0010": 3,
      "!": 4,
      "\"": 5,
      "#": 6,
      "$": 7,
      "%": 8,
      "&": 9,
      "'": 10,
      "(": 11,
      ")": 12,
      "*": 13,
      "+": 14,
      ",": 15,
      "-": 16,
      ".": 17,
      "/": 18,
      "0": 19,
      "1": 20,
      "2": 21,
      "3": 22,
      "4": 23,
      "5": 24,
      "6": 25,
      "7": 26,
      "8": 27,
      "9": 28,
      ":": 29,
      ";": 30,
      "<": 31,
      "=": 32,
      ">": 33,
      "?": 34,
      "@": 35,
      "A": 36,
      "B": 37,
      "C": 38,
      "D": 39,
      "E": 40,
      "F": 41,
      "G": 42,
      "H": 43,
      "I": 44,
      "J": 45,
      "K": 46,
      "L": 47,
      "M": 48,
      "N": 49,
      "O": 50,
      "P": 51,
      "Q": 52,
      "R": 53,
      "S": 54,
      "T": 55,
      "U": 56,
      "V": 57,
      "W": 58,
      "X": 59,
      "Y": 60,
      "Z": 61,
      "[": 62,
      "\\": 63,
      "]": 64,
      "^": 65,
      "_": 66,
      "`": 67,
      "a": 68,
      "b": 69,
      "c": 70,
      "d": 71,
      "e": 72,
      "f": 73,
      "g": 74,
      "h": 75,
      "i": 76,
      "j": 77,
      "k": 78,
      "l": 79,
      "m": 80,
      "n": 81,
      "o": 82,
      "p": 83,
      "q": 84,
      "r": 85,
      "s": 86,
      "t": 87,
      "u": 88,
      "v": 89,
      "w": 90,
      "x": 91,
      "y": 92,
      "z": 93,
      "{": 94,
      "|": 95,
      "}": 96,
      "~": 97,
      "": 98,
      "": 99,
      "¡": 100,
      "¢": 101,
      "£": 102,
      "¥": 103,
      "¦": 104,
      "§": 105,
      "©": 106,
      "«": 107,
      "¬": 108,
      "­": 109,
      "®": 110,
      "¯": 111,
      "°": 112,
      "±": 113,
      "²": 114,
      "³": 115,
      "´": 116,
      "µ": 117,
      "¶": 118,
      "·": 119,
      "¸": 120,
      "¹": 121,
      "»": 122,
      "¼": 123,
      "½": 124,
      "¾": 125,
      "¿": 126,
      "À": 127,
      "Á": 128,
      "Â": 129,
      "Ã": 130,
      "Ä": 131,
      "Å": 132,
      "Æ": 133,
      "Ç": 134,
      "É": 135,
      "Ë": 136,
      "Ì": 137,
      "Í": 138,
      "Î": 139,
      "Ï": 140,
      "Ð": 141,
      "Ñ": 142,
      "Ò": 143,
      "Ó": 144,
      "Ö": 145,
      "×": 146,
      "Ø": 147,
      "Ü": 148,
      "Ý": 149,
      "ß": 150,
      "à": 151,
      "á": 152,
      "â": 153,
      "ã": 154,
      "ä": 155,
      "å": 156,
      "æ": 157,
      "ç": 158,
      "è": 159,
      "é": 160,
      "ê": 161,
      "ë": 162,
      "ì": 163,
      "í": 164,
      "î": 165,
      "ï": 166,
      "ð": 167,
      "ñ": 168,
      "ò": 169,
      "ó": 170,
      "ô": 171,
      "õ": 172,
      "ö": 173,
      "÷": 174,
      "ø": 175,
      "ù": 176,
      "ú": 177,
      "û": 178,
      "ü": 179,
      "ý": 180,
      "þ": 181,
      "ÿ": 182,
      "ā": 183,
      "ą": 184,
      "Ć": 185,
      "ć": 186,
      "Č": 187,
      "č": 188,
      "Ď": 189,
      "Đ": 190,
      "đ": 191,
      "ĕ": 192,
      "Ę": 193,
      "ę": 194,
      "Ě": 195,
      "ě": 196,
      "ğ": 197,
      "Ĥ": 198,
      "ī": 199,
      "ı": 200,
      "Ł": 201,
      "ł": 202,
      "Ń": 203,
      "ņ": 204,
      "ō": 205,
      "Ő": 206,
      "ő": 207,
      "Œ": 208,
      "ŗ": 209,
      "ś": 210,
      "Ş": 211,
      "Š": 212,
      "š": 213,
      "ť": 214,
      "Ū": 215,
      "ū": 216,
      "Ŵ": 217,
      "Ÿ": 218,
      "Ź": 219,
      "ź": 220,
      "Ż": 221,
      "ż": 222,
      "ž": 223,
      "Ɓ": 224,
      "ƃ": 225,
      "ƍ": 226,
      "Ɛ": 227,
      "Ʃ": 228,
      "Ʒ": 229,
      "Ƹ": 230,
      "ǎ": 231,
      "ǔ": 232,
      "ǝ": 233,
      "ǡ": 234,
      "ǹ": 235,
      "ȯ": 236,
      "ȼ": 237,
      "ɐ": 238,
      "ɓ": 239,
      "ɔ": 240,
      "ə": 241,
      "ɛ": 242,
      "ɡ": 243,
      "ɥ": 244,
      "ɪ": 245,
      "ɯ": 246,
      "ɹ": 247,
      "ʁ": 248,
      "ʇ": 249,
      "ʎ": 250,
      "ʔ": 251,
      "ʕ": 252,
      "ʖ": 253,
      "ʗ": 254,
      "ʘ": 255,
      "ʙ": 256,
      "ʚ": 257,
      "ʞ": 258,
      "ʦ": 259,
      "ʬ": 260,
      "ʳ": 261,
      "ʷ": 262,
      "ʸ": 263,
      "ʺ": 264,
      "ʼ": 265,
      "ˇ": 266,
      "ˈ": 267,
      "˙": 268,
      "˜": 269,
      "̀": 270,
      "́": 271,
      "̂": 272,
      "̃": 273,
      "̄": 274,
      "̅": 275,
      "̆": 276,
      "̇": 277,
      "̈": 278,
      "̉": 279,
      "̊": 280,
      "̋": 281,
      "̌": 282,
      "̍": 283,
      "̎": 284,
      "̏": 285,
      "̐": 286,
      "̑": 287,
      "̒": 288,
      "̓": 289,
      "̔": 290,
      "̕": 291,
      "̖": 292,
      "̗": 293,
      "̘": 294,
      "̙": 295,
      "̚": 296,
      "̛": 297,
      "̜": 298,
      "̝": 299,
      "̞": 300,
      "̟": 301,
      "̠": 302,
      "̡": 303,
      "̢": 304,
      "̣": 305,
      "̤": 306,
      "̥": 307,
      "̦": 308,
      "̧": 309,
      "̨": 310,
      "̩": 311,
      "̪": 312,
      "̫": 313,
      "̬": 314,
      "̭": 315,
      "̮": 316,
      "̯": 317,
      "̰": 318,
      "̱": 319,
      "̲": 320,
      "̳": 321,
      "̴": 322,
      "̵": 323,
      "̶": 324,
      "̷": 325,
      "̸": 326,
      "̹": 327,
      "̺": 328,
      "̻": 329,
      "̼": 330,
      "̽": 331,
      "̾": 332,
      "̿": 333,
      "̀": 334,
      "́": 335,
      "͂": 336,
      "̓": 337,
      "̈́": 338,
      "ͅ": 339,
      "͆": 340,
      "͇": 341,
      "͈": 342,
      "͉": 343,
      "͊": 344,
      "͋": 345,
      "͌": 346,
      "͍": 347,
      "͎": 348,
      "͏": 349,
      "͐": 350,
      "͑": 351,
      "͒": 352,
      "͓": 353,
      "͔": 354,
      "͕": 355,
      "͖": 356,
      "͗": 357,
      "͘": 358,
      "͙": 359,
      "͚": 360,
      "͛": 361,
      "͜": 362,
      "͝": 363,
      "͞": 364,
      "͟": 365,
      "͠": 366,
      "͡": 367,
      "͢": 368,
      "ͣ": 369,
      "ͤ": 370,
      "ͥ": 371,
      "ͦ": 372,
      "ͧ": 373,
      "ͨ": 374,
      "ͩ": 375,
      "ͪ": 376,
      "ͫ": 377,
      "ͬ": 378,
      "ͭ": 379,
      "ͮ": 380,
      "ͯ": 381,
      "Ή": 382,
      "Α": 383,
      "Β": 384,
      "Γ": 385,
      "Δ": 386,
      "Ε": 387,
      "Η": 388,
      "Κ": 389,
      "Μ": 390,
      "Π": 391,
      "Σ": 392,
      "Τ": 393,
      "Ω": 394,
      "ά": 395,
      "έ": 396,
      "ή": 397,
      "ί": 398,
      "α": 399,
      "β": 400,
      "γ": 401,
      "δ": 402,
      "ε": 403,
      "η": 404,
      "θ": 405,
      "ι": 406,
      "κ": 407,
      "λ": 408,
      "μ": 409,
      "ν": 410,
      "ο": 411,
      "π": 412,
      "ρ": 413,
      "ς": 414,
      "σ": 415,
      "τ": 416,
      "υ": 417,
      "φ": 418,
      "χ": 419,
      "ω": 420,
      "ό": 421,
      "ύ": 422,
      "Ϧ": 423,
      "Ϭ": 424,
      "Ё": 425,
      "Ђ": 426,
      "Ѓ": 427,
      "Є": 428,
      "Ѕ": 429,
      "І": 430,
      "Ї": 431,
      "Ј": 432,
      "Њ": 433,
      "Ў": 434,
      "Џ": 435,
      "А": 436,
      "Б": 437,
      "В": 438,
      "Г": 439,
      "Д": 440,
      "Е": 441,
      "Ж": 442,
      "З": 443,
      "И": 444,
      "Й": 445,
      "К": 446,
      "Л": 447,
      "М": 448,
      "Н": 449,
      "О": 450,
      "П": 451,
      "Р": 452,
      "С": 453,
      "Т": 454,
      "У": 455,
      "Ф": 456,
      "Х": 457,
      "Ц": 458,
      "Ч": 459,
      "Ш": 460,
      "Щ": 461,
      "Ъ": 462,
      "Ы": 463,
      "Ь": 464,
      "Э": 465,
      "Ю": 466,
      "Я": 467,
      "а": 468,
      "б": 469,
      "в": 470,
      "г": 471,
      "д": 472,
      "е": 473,
      "ж": 474,
      "з": 475,
      "и": 476,
      "й": 477,
      "к": 478,
      "л": 479,
      "м": 480,
      "н": 481,
      "о": 482,
      "п": 483,
      "р": 484,
      "с": 485,
      "т": 486,
      "у": 487,
      "ф": 488,
      "х": 489,
      "ц": 490,
      "ч": 491,
      "ш": 492,
      "щ": 493,
      "ъ": 494,
      "ы": 495,
      "ь": 496,
      "э": 497,
      "ю": 498,
      "я": 499,
      "ѐ": 500,
      "ё": 501,
      "є": 502,
      "ѕ": 503,
      "і": 504,
      "ї": 505,
      "ј": 506,
      "љ": 507,
      "њ": 508,
      "ћ": 509,
      "ќ": 510,
      "ѝ": 511,
      "ў": 512,
      "џ": 513,
      "Ѣ": 514,
      "ѣ": 515,
      "ѧ": 516,
      "Ѳ": 517,
      "ѳ": 518,
      "ѻ": 519,
      "Ѽ": 520,
      "Ѿ": 521,
      "҄": 522,
      "҆": 523,
      "҉": 524,
      "Ґ": 525,
      "ґ": 526,
      "ғ": 527,
      "җ": 528,
      "Қ": 529,
      "қ": 530,
      "ҡ": 531,
      "Ң": 532,
      "ң": 533,
      "ү": 534,
      "ұ": 535,
      "Һ": 536,
      "һ": 537,
      "Ӂ": 538,
      "Ә": 539,
      "ә": 540,
      "Ө": 541,
      "ө": 542,
      "Ա": 543,
      "Դ": 544,
      "Ե": 545,
      "Է": 546,
      "Ի": 547,
      "Լ": 548,
      "Մ": 549,
      "Փ": 550,
      "Ք": 551,
      "՝": 552,
      "ա": 553,
      "բ": 554,
      "գ": 555,
      "դ": 556,
      "ե": 557,
      "զ": 558,
      "է": 559,
      "ը": 560,
      "թ": 561,
      "ժ": 562,
      "ի": 563,
      "լ": 564,
      "խ": 565,
      "ծ": 566,
      "կ": 567,
      "հ": 568,
      "ձ": 569,
      "ղ": 570,
      "ճ": 571,
      "մ": 572,
      "յ": 573,
      "ն": 574,
      "շ": 575,
      "ո": 576,
      "չ": 577,
      "պ": 578,
      "ջ": 579,
      "ռ": 580,
      "ս": 581,
      "վ": 582,
      "տ": 583,
      "ր": 584,
      "ց": 585,
      "ւ": 586,
      "փ": 587,
      "ք": 588,
      "օ": 589,
      "ֆ": 590,
      "և": 591,
      "֎": 592,
      "ָ": 593,
      "א": 594,
      "ב": 595,
      "ג": 596,
      "ד": 597,
      "ה": 598,
      "ו": 599,
      "ז": 600,
      "ח": 601,
      "ט": 602,
      "י": 603,
      "ך": 604,
      "כ": 605,
      "ל": 606,
      "ם": 607,
      "מ": 608,
      "ן": 609,
      "נ": 610,
      "ס": 611,
      "ע": 612,
      "ף": 613,
      "פ": 614,
      "צ": 615,
      "ק": 616,
      "ר": 617,
      "ש": 618,
      "ת": 619,
      "״": 620,
      "،": 621,
      "؟": 622,
      "ء": 623,
      "أ": 624,
      "إ": 625,
      "ئ": 626,
      "ا": 627,
      "ب": 628,
      "ة": 629,
      "ت": 630,
      "ث": 631,
      "ج": 632,
      "ح": 633,
      "خ": 634,
      "د": 635,
      "ذ": 636,
      "ر": 637,
      "ز": 638,
      "س": 639,
      "ش": 640,
      "ص": 641,
      "ض": 642,
      "ط": 643,
      "ظ": 644,
      "ع": 645,
      "غ": 646,
      "ف": 647,
      "ق": 648,
      "ك": 649,
      "ل": 650,
      "م": 651,
      "ن": 652,
      "ه": 653,
      "و": 654,
      "ى": 655,
      "ي": 656,
      "ً": 657,
      "َ": 658,
      "ُ": 659,
      "ِ": 660,
      "ّ": 661,
      "ْ": 662,
      "ڴ": 663,
      "ۜ": 664,
      "۝": 665,
      "ۣ": 666,
      "ݗ": 667,
      "इ": 668,
      "ई": 669,
      "उ": 670,
      "क": 671,
      "च": 672,
      "छ": 673,
      "झ": 674,
      "ट": 675,
      "ड": 676,
      "त": 677,
      "थ": 678,
      "द": 679,
      "ध": 680,
      "न": 681,
      "प": 682,
      "ब": 683,
      "म": 684,
      "य": 685,
      "र": 686,
      "व": 687,
      "स": 688,
      "ह": 689,
      "ा": 690,
      "ि": 691,
      "ू": 692,
      "े": 693,
      "ै": 694,
      "ो": 695,
      "ौ": 696,
      "्": 697,
      "ॐ": 698,
      "।": 699,
      "இ": 700,
      "ஐ": 701,
      "ஔ": 702,
      "ఎ": 703,
      "ఞ": 704,
      "ಊ": 705,
      "ಠ": 706,
      "ഊ": 707,
      "യ": 708,
      "ൠ": 709,
      "ส": 710,
      "็": 711,
      "้": 712,
      "๑": 713,
      "๖": 714,
      "ໂ": 715,
      "ໃ": 716,
      "ໄ": 717,
      "ა": 718,
      "ბ": 719,
      "გ": 720,
      "დ": 721,
      "ე": 722,
      "ვ": 723,
      "ზ": 724,
      "თ": 725,
      "ი": 726,
      "კ": 727,
      "ლ": 728,
      "მ": 729,
      "ნ": 730,
      "ო": 731,
      "პ": 732,
      "ჟ": 733,
      "რ": 734,
      "ს": 735,
      "ტ": 736,
      "უ": 737,
      "ფ": 738,
      "ქ": 739,
      "ღ": 740,
      "ყ": 741,
      "შ": 742,
      "ჩ": 743,
      "ც": 744,
      "წ": 745,
      "ჭ": 746,
      "ხ": 747,
      "ჯ": 748,
      "ჰ": 749,
      "ᅠ": 750,
      "ᆕ": 751,
      "Ꮸ": 752,
      "᠌": 753,
      "Რ": 754,
      "ᴍ": 755,
      "ᴎ": 756,
      "ᴙ": 757,
      "ᴥ": 758,
      "ᴫ": 759,
      "ᴱ": 760,
      "ᴴ": 761,
      "ᵀ": 762,
      "ẞ": 763,
      "ề": 764,
      "ị": 765,
      "ủ": 766,
      "ử": 767,
      "ἀ": 768,
      "ἶ": 769,
      "Ἱ": 770,
      "ὑ": 771,
      "​": 772,
      "‌": 773,
      "‍": 774,
      "‎": 775,
      "‏": 776,
      "‐": 777,
      "‑": 778,
      "‒": 779,
      "–": 780,
      "—": 781,
      "―": 782,
      "‘": 783,
      "’": 784,
      "‚": 785,
      "“": 786,
      "”": 787,
      "„": 788,
      "‡": 789,
      "•": 790,
      "…": 791,
      "‪": 792,
      "‬": 793,
      "‭": 794,
      "‰": 795,
      "›": 796,
      "‼": 797,
      "‾": 798,
      "⁃": 799,
      "⁉": 800,
      "⁠": 801,
      "⁣": 802,
      "⁰": 803,
      "⁴": 804,
      "⁵": 805,
      "⁸": 806,
      "⁹": 807,
      "⁻": 808,
      "₁": 809,
      "₂": 810,
      "₃": 811,
      "₅": 812,
      "₩": 813,
      "₪": 814,
      "€": 815,
      "₴": 816,
      "₽": 817,
      "⃣": 818,
      "℃": 819,
      "℅": 820,
      "№": 821,
      "™": 822,
      "ℹ": 823,
      "⅔": 824,
      "⅛": 825,
      "←": 826,
      "→": 827,
      "↓": 828,
      "⇄": 829,
      "∃": 830,
      "∆": 831,
      "∈": 832,
      "−": 833,
      "√": 834,
      "∞": 835,
      "∠": 836,
      "∧": 837,
      "∫": 838,
      "≈": 839,
      "⊂": 840,
      "⊃": 841,
      "⊙": 842,
      "⌒": 843,
      "⌛": 844,
      "⌠": 845,
      "⎛": 846,
      "⎝": 847,
      "⏝": 848,
      "⏤": 849,
      "⏰": 850,
      "⏱": 851,
      "⏳": 852,
      "Ⓘ": 853,
      "Ⓜ": 854,
      "─": 855,
      "━": 856,
      "│": 857,
      "┃": 858,
      "┏": 859,
      "┐": 860,
      "┓": 861,
      "└": 862,
      "┗": 863,
      "┛": 864,
      "┣": 865,
      "┤": 866,
      "┫": 867,
      "┳": 868,
      "┻": 869,
      "═": 870,
      "║": 871,
      "╔": 872,
      "╗": 873,
      "╚": 874,
      "╝": 875,
      "╠": 876,
      "╣": 877,
      "╦": 878,
      "╬": 879,
      "╭": 880,
      "╮": 881,
      "╯": 882,
      "╰": 883,
      "╱": 884,
      "╲": 885,
      "▀": 886,
      "▄": 887,
      "▅": 888,
      "▆": 889,
      "▇": 890,
      "█": 891,
      "▋": 892,
      "▌": 893,
      "▎": 894,
      "▐": 895,
      "░": 896,
      "▒": 897,
      "▓": 898,
      "■": 899,
      "□": 900,
      "▬": 901,
      "▲": 902,
      "▶": 903,
      "►": 904,
      "▽": 905,
      "◉": 906,
      "○": 907,
      "●": 908,
      "◐": 909,
      "◼": 910,
      "☀": 911,
      "☁": 912,
      "☎": 913,
      "☑": 914,
      "☔": 915,
      "☕": 916,
      "☝": 917,
      "☠": 918,
      "☢": 919,
      "☣": 920,
      "☦": 921,
      "☭": 922,
      "☹": 923,
      "☺": 924,
      "☻": 925,
      "☼": 926,
      "♀": 927,
      "♂": 928,
      "♅": 929,
      "♈": 930,
      "♏": 931,
      "♑": 932,
      "♠": 933,
      "♡": 934,
      "♣": 935,
      "♥": 936,
      "♦": 937,
      "♻": 938,
      "⚒": 939,
      "⚓": 940,
      "⚔": 941,
      "⚕": 942,
      "⚖": 943,
      "⚗": 944,
      "⚝": 945,
      "⚠": 946,
      "⚡": 947,
      "⚰": 948,
      "⚽": 949,
      "⛄": 950,
      "⛅": 951,
      "⛈": 952,
      "⛏": 953,
      "⛓": 954,
      "⛔": 955,
      "⛪": 956,
      "⛰": 957,
      "⛳": 958,
      "⛴": 959,
      "⛵": 960,
      "⛷": 961,
      "⛽": 962,
      "✅": 963,
      "✈": 964,
      "✉": 965,
      "✊": 966,
      "✋": 967,
      "✌": 968,
      "✍": 969,
      "✏": 970,
      "✓": 971,
      "✔": 972,
      "✖": 973,
      "✝": 974,
      "✡": 975,
      "✨": 976,
      "❄": 977,
      "❌": 978,
      "❓": 979,
      "❔": 980,
      "❕": 981,
      "❗": 982,
      "❣": 983,
      "❤": 984,
      "➖": 985,
      "➜": 986,
      "➡": 987,
      "⠀": 988,
      "⠁": 989,
      "⠂": 990,
      "⠃": 991,
      "⠄": 992,
      "⠅": 993,
      "⠇": 994,
      "⠈": 995,
      "⠉": 996,
      "⠊": 997,
      "⠋": 998,
      "⠍": 999,
      "⠎": 1000,
      "⠏": 1001,
      "⠑": 1002,
      "⠓": 1003,
      "⠕": 1004,
      "⠖": 1005,
      "⠗": 1006,
      "⠙": 1007,
      "⠚": 1008,
      "⠛": 1009,
      "⠝": 1010,
      "⠞": 1011,
      "⠟": 1012,
      "⠠": 1013,
      "⠢": 1014,
      "⠤": 1015,
      "⠥": 1016,
      "⠫": 1017,
      "⠮": 1018,
      "⠯": 1019,
      "⠱": 1020,
      "⠲": 1021,
      "⠳": 1022,
      "⠵": 1023,
      "⠶": 1024,
      "⠷": 1025,
      "⠺": 1026,
      "⠻": 1027,
      "⠾": 1028,
      "⡀": 1029,
      "⡄": 1030,
      "⡇": 1031,
      "⡏": 1032,
      "⡶": 1033,
      "⡿": 1034,
      "⢀": 1035,
      "⢠": 1036,
      "⢸": 1037,
      "⢻": 1038,
      "⣀": 1039,
      "⣄": 1040,
      "⣆": 1041,
      "⣇": 1042,
      "⣤": 1043,
      "⣦": 1044,
      "⣴": 1045,
      "⣶": 1046,
      "⣼": 1047,
      "⣾": 1048,
      "⣿": 1049,
      "⤴": 1050,
      "⬅": 1051,
      "⭐": 1052,
      "、": 1053,
      "。": 1054,
      "《": 1055,
      "》": 1056,
      "「": 1057,
      "」": 1058,
      "『": 1059,
      "』": 1060,
      "【": 1061,
      "】": 1062,
      "あ": 1063,
      "い": 1064,
      "う": 1065,
      "え": 1066,
      "お": 1067,
      "か": 1068,
      "が": 1069,
      "き": 1070,
      "く": 1071,
      "け": 1072,
      "げ": 1073,
      "こ": 1074,
      "ご": 1075,
      "し": 1076,
      "す": 1077,
      "せ": 1078,
      "ぜ": 1079,
      "そ": 1080,
      "た": 1081,
      "だ": 1082,
      "っ": 1083,
      "つ": 1084,
      "づ": 1085,
      "て": 1086,
      "で": 1087,
      "と": 1088,
      "な": 1089,
      "に": 1090,
      "の": 1091,
      "は": 1092,
      "ば": 1093,
      "へ": 1094,
      "べ": 1095,
      "ぼ": 1096,
      "ま": 1097,
      "み": 1098,
      "め": 1099,
      "も": 1100,
      "や": 1101,
      "ゆ": 1102,
      "よ": 1103,
      "ら": 1104,
      "り": 1105,
      "る": 1106,
      "れ": 1107,
      "わ": 1108,
      "を": 1109,
      "ん": 1110,
      "ゝ": 1111,
      "ア": 1112,
      "イ": 1113,
      "ウ": 1114,
      "ェ": 1115,
      "ク": 1116,
      "ゴ": 1117,
      "シ": 1118,
      "ス": 1119,
      "ソ": 1120,
      "タ": 1121,
      "ダ": 1122,
      "チ": 1123,
      "ッ": 1124,
      "ツ": 1125,
      "ト": 1126,
      "ド": 1127,
      "ナ": 1128,
      "ニ": 1129,
      "ノ": 1130,
      "ハ": 1131,
      "バ": 1132,
      "フ": 1133,
      "ボ": 1134,
      "ミ": 1135,
      "ャ": 1136,
      "ュ": 1137,
      "ョ": 1138,
      "ラ": 1139,
      "リ": 1140,
      "ル": 1141,
      "レ": 1142,
      "ロ": 1143,
      "ン": 1144,
      "・": 1145,
      "ー": 1146,
      "ヽ": 1147,
      "ㄹ": 1148,
      "ㅅ": 1149,
      "ㅆ": 1150,
      "ㅇ": 1151,
      "ㅈ": 1152,
      "ㅊ": 1153,
      "ㅌ": 1154,
      "ㅎ": 1155,
      "ㅒ": 1156,
      "ㅠ": 1157,
      "㈺": 1158,
      "㑳": 1159,
      "㔱": 1160,
      "㙣": 1161,
      "㝧": 1162,
      "㡦": 1163,
      "㩥": 1164,
      "㩮": 1165,
      "㩲": 1166,
      "㩳": 1167,
      "㩹": 1168,
      "㬩": 1169,
      "㬸": 1170,
      "㭸": 1171,
      "䐺": 1172,
      "䔬": 1173,
      "䥘": 1174,
      "一": 1175,
      "丁": 1176,
      "三": 1177,
      "上": 1178,
      "下": 1179,
      "不": 1180,
      "世": 1181,
      "两": 1182,
      "个": 1183,
      "丫": 1184,
      "中": 1185,
      "丸": 1186,
      "丹": 1187,
      "丿": 1188,
      "乂": 1189,
      "么": 1190,
      "也": 1191,
      "习": 1192,
      "乡": 1193,
      "了": 1194,
      "事": 1195,
      "二": 1196,
      "五": 1197,
      "亚": 1198,
      "些": 1199,
      "交": 1200,
      "亮": 1201,
      "人": 1202,
      "亼": 1203,
      "亽": 1204,
      "什": 1205,
      "仁": 1206,
      "仈": 1207,
      "今": 1208,
      "从": 1209,
      "他": 1210,
      "代": 1211,
      "们": 1212,
      "伙": 1213,
      "伪": 1214,
      "伯": 1215,
      "位": 1216,
      "何": 1217,
      "作": 1218,
      "你": 1219,
      "使": 1220,
      "俄": 1221,
      "個": 1222,
      "們": 1223,
      "候": 1224,
      "傢": 1225,
      "傷": 1226,
      "元": 1227,
      "兄": 1228,
      "先": 1229,
      "入": 1230,
      "全": 1231,
      "八": 1232,
      "共": 1233,
      "其": 1234,
      "具": 1235,
      "再": 1236,
      "军": 1237,
      "冠": 1238,
      "况": 1239,
      "几": 1240,
      "分": 1241,
      "切": 1242,
      "利": 1243,
      "到": 1244,
      "力": 1245,
      "务": 1246,
      "医": 1247,
      "十": 1248,
      "卡": 1249,
      "卢": 1250,
      "卧": 1251,
      "卲": 1252,
      "厂": 1253,
      "厶": 1254,
      "去": 1255,
      "反": 1256,
      "发": 1257,
      "取": 1258,
      "口": 1259,
      "句": 1260,
      "另": 1261,
      "只": 1262,
      "同": 1263,
      "吧": 1264,
      "听": 1265,
      "启": 1266,
      "吾": 1267,
      "告": 1268,
      "员": 1269,
      "呜": 1270,
      "呢": 1271,
      "味": 1272,
      "和": 1273,
      "哪": 1274,
      "哭": 1275,
      "商": 1276,
      "喊": 1277,
      "喝": 1278,
      "單": 1279,
      "嘴": 1280,
      "囗": 1281,
      "回": 1282,
      "国": 1283,
      "國": 1284,
      "土": 1285,
      "在": 1286,
      "地": 1287,
      "圾": 1288,
      "垃": 1289,
      "塔": 1290,
      "大": 1291,
      "天": 1292,
      "太": 1293,
      "夫": 1294,
      "失": 1295,
      "头": 1296,
      "好": 1297,
      "妇": 1298,
      "妈": 1299,
      "姑": 1300,
      "娘": 1301,
      "媽": 1302,
      "子": 1303,
      "孔": 1304,
      "字": 1305,
      "季": 1306,
      "它": 1307,
      "完": 1308,
      "容": 1309,
      "實": 1310,
      "对": 1311,
      "對": 1312,
      "小": 1313,
      "少": 1314,
      "尔": 1315,
      "尤": 1316,
      "就": 1317,
      "尸": 1318,
      "尻": 1319,
      "尾": 1320,
      "屋": 1321,
      "山": 1322,
      "岛": 1323,
      "島": 1324,
      "巨": 1325,
      "已": 1326,
      "布": 1327,
      "帝": 1328,
      "帶": 1329,
      "平": 1330,
      "年": 1331,
      "幸": 1332,
      "广": 1333,
      "应": 1334,
      "度": 1335,
      "廾": 1336,
      "弓": 1337,
      "弗": 1338,
      "弟": 1339,
      "弯": 1340,
      "弱": 1341,
      "强": 1342,
      "彐": 1343,
      "当": 1344,
      "彼": 1345,
      "很": 1346,
      "得": 1347,
      "心": 1348,
      "性": 1349,
      "您": 1350,
      "情": 1351,
      "想": 1352,
      "意": 1353,
      "慢": 1354,
      "慥": 1355,
      "慧": 1356,
      "慬": 1357,
      "慭": 1358,
      "慲": 1359,
      "慴": 1360,
      "懂": 1361,
      "戈": 1362,
      "我": 1363,
      "戠": 1364,
      "戭": 1365,
      "戺": 1366,
      "戻": 1367,
      "所": 1368,
      "手": 1369,
      "才": 1370,
      "扥": 1371,
      "执": 1372,
      "扻": 1373,
      "投": 1374,
      "抽": 1375,
      "拉": 1376,
      "拭": 1377,
      "持": 1378,
      "捡": 1379,
      "捥": 1380,
      "搴": 1381,
      "搻": 1382,
      "摆": 1383,
      "摡": 1384,
      "摩": 1385,
      "摮": 1386,
      "摲": 1387,
      "摻": 1388,
      "撕": 1389,
      "攜": 1390,
      "攣": 1391,
      "故": 1392,
      "教": 1393,
      "散": 1394,
      "敤": 1395,
      "敧": 1396,
      "敩": 1397,
      "敬": 1398,
      "敮": 1399,
      "敲": 1400,
      "整": 1401,
      "敶": 1402,
      "敷": 1403,
      "文": 1404,
      "斯": 1405,
      "於": 1406,
      "族": 1407,
      "无": 1408,
      "日": 1409,
      "时": 1410,
      "昏": 1411,
      "昣": 1412,
      "是": 1413,
      "昸": 1414,
      "显": 1415,
      "時": 1416,
      "晓": 1417,
      "晥": 1418,
      "景": 1419,
      "晲": 1420,
      "晳": 1421,
      "智": 1422,
      "暗": 1423,
      "最": 1424,
      "有": 1425,
      "服": 1426,
      "朣": 1427,
      "本": 1428,
      "札": 1429,
      "条": 1430,
      "杢": 1431,
      "来": 1432,
      "杫": 1433,
      "杯": 1434,
      "東": 1435,
      "林": 1436,
      "桌": 1437,
      "森": 1438,
      "椭": 1439,
      "楍": 1440,
      "楢": 1441,
      "楤": 1442,
      "楧": 1443,
      "楫": 1444,
      "楬": 1445,
      "楴": 1446,
      "槽": 1447,
      "樣": 1448,
      "次": 1449,
      "止": 1450,
      "正": 1451,
      "歲": 1452,
      "死": 1453,
      "毀": 1454,
      "氬": 1455,
      "氭": 1456,
      "求": 1457,
      "汉": 1458,
      "汩": 1459,
      "汯": 1460,
      "汰": 1461,
      "決": 1462,
      "没": 1463,
      "法": 1464,
      "注": 1465,
      "洗": 1466,
      "洭": 1467,
      "流": 1468,
      "浆": 1469,
      "浩": 1470,
      "浪": 1471,
      "浯": 1472,
      "海": 1473,
      "浸": 1474,
      "浻": 1475,
      "淫": 1476,
      "渐": 1477,
      "湡": 1478,
      "湥": 1479,
      "湩": 1480,
      "湵": 1481,
      "漂": 1482,
      "漢": 1483,
      "漭": 1484,
      "漻": 1485,
      "潃": 1486,
      "潢": 1487,
      "潣": 1488,
      "潩": 1489,
      "潬": 1490,
      "潭": 1491,
      "潲": 1492,
      "潴": 1493,
      "瀰": 1494,
      "瀲": 1495,
      "瀻": 1496,
      "灯": 1497,
      "灳": 1498,
      "灾": 1499,
      "為": 1500,
      "炼": 1501,
      "烟": 1502,
      "然": 1503,
      "爪": 1504,
      "爭": 1505,
      "父": 1506,
      "片": 1507,
      "牔": 1508,
      "牙": 1509,
      "牡": 1510,
      "牣": 1511,
      "牥": 1512,
      "牦": 1513,
      "牧": 1514,
      "物": 1515,
      "牯": 1516,
      "牰": 1517,
      "牴": 1518,
      "犯": 1519,
      "猠": 1520,
      "猨": 1521,
      "獧": 1522,
      "獩": 1523,
      "獭": 1524,
      "獯": 1525,
      "獵": 1526,
      "王": 1527,
      "玩": 1528,
      "现": 1529,
      "球": 1530,
      "理": 1531,
      "琨": 1532,
      "琴": 1533,
      "瑦": 1534,
      "瑩": 1535,
      "瑮": 1536,
      "瑯": 1537,
      "瑲": 1538,
      "瓜": 1539,
      "生": 1540,
      "產": 1541,
      "申": 1542,
      "男": 1543,
      "界": 1544,
      "畩": 1545,
      "畯": 1546,
      "當": 1547,
      "疼": 1548,
      "痛": 1549,
      "白": 1550,
      "的": 1551,
      "目": 1552,
      "相": 1553,
      "看": 1554,
      "眭": 1555,
      "着": 1556,
      "知": 1557,
      "短": 1558,
      "石": 1559,
      "硬": 1560,
      "硰": 1561,
      "示": 1562,
      "祖": 1563,
      "祡": 1564,
      "禅": 1565,
      "禪": 1566,
      "私": 1567,
      "秃": 1568,
      "程": 1569,
      "穯": 1570,
      "突": 1571,
      "立": 1572,
      "笑": 1573,
      "答": 1574,
      "筮": 1575,
      "簡": 1576,
      "結": 1577,
      "絸": 1578,
      "經": 1579,
      "经": 1580,
      "给": 1581,
      "维": 1582,
      "羅": 1583,
      "習": 1584,
      "翻": 1585,
      "老": 1586,
      "者": 1587,
      "聽": 1588,
      "肏": 1589,
      "肠": 1590,
      "胸": 1591,
      "能": 1592,
      "自": 1593,
      "般": 1594,
      "茶": 1595,
      "草": 1596,
      "获": 1597,
      "華": 1598,
      "萬": 1599,
      "葉": 1600,
      "著": 1601,
      "虾": 1602,
      "蛋": 1603,
      "蜀": 1604,
      "行": 1605,
      "街": 1606,
      "装": 1607,
      "褲": 1608,
      "襪": 1609,
      "西": 1610,
      "要": 1611,
      "见": 1612,
      "解": 1613,
      "言": 1614,
      "訳": 1615,
      "話": 1616,
      "該": 1617,
      "語": 1618,
      "說": 1619,
      "誰": 1620,
      "講": 1621,
      "讓": 1622,
      "认": 1623,
      "讲": 1624,
      "许": 1625,
      "诉": 1626,
      "词": 1627,
      "译": 1628,
      "话": 1629,
      "语": 1630,
      "说": 1631,
      "请": 1632,
      "读": 1633,
      "谁": 1634,
      "豪": 1635,
      "赛": 1636,
      "走": 1637,
      "起": 1638,
      "足": 1639,
      "跟": 1640,
      "踏": 1641,
      "身": 1642,
      "躺": 1643,
      "車": 1644,
      "辈": 1645,
      "近": 1646,
      "这": 1647,
      "這": 1648,
      "通": 1649,
      "逛": 1650,
      "遊": 1651,
      "遍": 1652,
      "道": 1653,
      "那": 1654,
      "都": 1655,
      "酒": 1656,
      "酢": 1657,
      "里": 1658,
      "锻": 1659,
      "长": 1660,
      "閉": 1661,
      "間": 1662,
      "關": 1663,
      "问": 1664,
      "阳": 1665,
      "限": 1666,
      "際": 1667,
      "隨": 1668,
      "靈": 1669,
      "韩": 1670,
      "项": 1671,
      "風": 1672,
      "食": 1673,
      "饭": 1674,
      "首": 1675,
      "香": 1676,
      "馬": 1677,
      "马": 1678,
      "高": 1679,
      "鬼": 1680,
      "魂": 1681,
      "魔": 1682,
      "鲸": 1683,
      "鸡": 1684,
      "鹿": 1685,
      "麼": 1686,
      "黨": 1687,
      "龙": 1688,
      "ꙋ": 1689,
      "가": 1690,
      "갔": 1691,
      "개": 1692,
      "게": 1693,
      "겠": 1694,
      "고": 1695,
      "곤": 1696,
      "과": 1697,
      "국": 1698,
      "기": 1699,
      "김": 1700,
      "께": 1701,
      "나": 1702,
      "내": 1703,
      "녀": 1704,
      "누": 1705,
      "는": 1706,
      "니": 1707,
      "다": 1708,
      "단": 1709,
      "당": 1710,
      "더": 1711,
      "도": 1712,
      "돈": 1713,
      "돌": 1714,
      "동": 1715,
      "두": 1716,
      "록": 1717,
      "를": 1718,
      "리": 1719,
      "만": 1720,
      "망": 1721,
      "문": 1722,
      "받": 1723,
      "보": 1724,
      "본": 1725,
      "비": 1726,
      "쁜": 1727,
      "사": 1728,
      "석": 1729,
      "선": 1730,
      "수": 1731,
      "스": 1732,
      "습": 1733,
      "시": 1734,
      "식": 1735,
      "신": 1736,
      "싶": 1737,
      "쓰": 1738,
      "아": 1739,
      "안": 1740,
      "않": 1741,
      "알": 1742,
      "어": 1743,
      "었": 1744,
      "에": 1745,
      "오": 1746,
      "온": 1747,
      "우": 1748,
      "은": 1749,
      "을": 1750,
      "음": 1751,
      "이": 1752,
      "인": 1753,
      "일": 1754,
      "있": 1755,
      "자": 1756,
      "재": 1757,
      "정": 1758,
      "죽": 1759,
      "줘": 1760,
      "지": 1761,
      "집": 1762,
      "추": 1763,
      "쿠": 1764,
      "텍": 1765,
      "트": 1766,
      "편": 1767,
      "피": 1768,
      "하": 1769,
      "한": 1770,
      "할": 1771,
      "함": 1772,
      "": 1773,
      "": 1774,
      "": 1775,
      "️": 1776,
      "︵": 1777,
      "ﻸ": 1778,
      "﻿": 1779,
      "！": 1780,
      "（": 1781,
      "）": 1782,
      "，": 1783,
      "－": 1784,
      "．": 1785,
      "／": 1786,
      "：": 1787,
      "＜": 1788,
      "＞": 1789,
      "？": 1790,
      "Ａ": 1791,
      "Ｃ": 1792,
      "Ｄ": 1793,
      "Ｅ": 1794,
      "Ｆ": 1795,
      "Ｉ": 1796,
      "Ｋ": 1797,
      "Ｌ": 1798,
      "Ｎ": 1799,
      "Ｏ": 1800,
      "Ｐ": 1801,
      "Ｑ": 1802,
      "Ｒ": 1803,
      "Ｓ": 1804,
      "Ｔ": 1805,
      "Ｕ": 1806,
      "＼": 1807,
      "＿": 1808,
      "｀": 1809,
      "ａ": 1810,
      "ｃ": 1811,
      "ｄ": 1812,
      "ｅ": 1813,
      "ｆ": 1814,
      "ｈ": 1815,
      "ｉ": 1816,
      "ｌ": 1817,
      "ｍ": 1818,
      "ｎ": 1819,
      "ｏ": 1820,
      "ｐ": 1821,
      "ｒ": 1822,
      "ｓ": 1823,
      "ｔ": 1824,
      "ｕ": 1825,
      "､": 1826,
      "･": 1827,
      "ﾉ": 1828,
      "ﾚ": 1829,
      "ﾟ": 1830,
      "￣": 1831,
      "￼": 1832,
      "𝙆": 1833,
      "𝙋": 1834,
      "𝙑": 1835,
      "𝙚": 1836,
      "𝙞": 1837,
      "𝙢": 1838,
      "𝙧": 1839,
      "𝙪": 1840,
      "🀄": 1841,
      "🃏": 1842,
      "🅰": 1843,
      "🅱": 1844,
      "🅾": 1845,
      "🆕": 1846,
      "🆘": 1847,
      "🇦": 1848,
      "🇧": 1849,
      "🇨": 1850,
      "🇩": 1851,
      "🇪": 1852,
      "🇫": 1853,
      "🇬": 1854,
      "🇭": 1855,
      "🇮": 1856,
      "🇯": 1857,
      "🇰": 1858,
      "🇱": 1859,
      "🇲": 1860,
      "🇳": 1861,
      "🇴": 1862,
      "🇵": 1863,
      "🇶": 1864,
      "🇷": 1865,
      "🇸": 1866,
      "🇹": 1867,
      "🇺": 1868,
      "🇻": 1869,
      "🇼": 1870,
      "🇽": 1871,
      "🇾": 1872,
      "🇿": 1873,
      "🌀": 1874,
      "🌅": 1875,
      "🌈": 1876,
      "🌊": 1877,
      "🌍": 1878,
      "🌎": 1879,
      "🌏": 1880,
      "🌐": 1881,
      "🌑": 1882,
      "🌒": 1883,
      "🌓": 1884,
      "🌔": 1885,
      "🌕": 1886,
      "🌖": 1887,
      "🌗": 1888,
      "🌘": 1889,
      "🌚": 1890,
      "🌛": 1891,
      "🌝": 1892,
      "🌞": 1893,
      "🌟": 1894,
      "🌧": 1895,
      "🌨": 1896,
      "🌪": 1897,
      "🌫": 1898,
      "🌬": 1899,
      "🌭": 1900,
      "🌱": 1901,
      "🌲": 1902,
      "🌳": 1903,
      "🌵": 1904,
      "🌸": 1905,
      "🌹": 1906,
      "🌺": 1907,
      "🌽": 1908,
      "🌾": 1909,
      "🌿": 1910,
      "🍀": 1911,
      "🍁": 1912,
      "🍂": 1913,
      "🍃": 1914,
      "🍄": 1915,
      "🍆": 1916,
      "🍇": 1917,
      "🍉": 1918,
      "🍊": 1919,
      "🍌": 1920,
      "🍎": 1921,
      "🍏": 1922,
      "🍐": 1923,
      "🍑": 1924,
      "🍒": 1925,
      "🍓": 1926,
      "🍔": 1927,
      "🍕": 1928,
      "🍖": 1929,
      "🍛": 1930,
      "🍞": 1931,
      "🍟": 1932,
      "🍢": 1933,
      "🍩": 1934,
      "🍪": 1935,
      "🍫": 1936,
      "🍬": 1937,
      "🍭": 1938,
      "🍯": 1939,
      "🍰": 1940,
      "🍳": 1941,
      "🍴": 1942,
      "🍵": 1943,
      "🍸": 1944,
      "🍺": 1945,
      "🍻": 1946,
      "🍼": 1947,
      "🍽": 1948,
      "🎀": 1949,
      "🎁": 1950,
      "🎂": 1951,
      "🎃": 1952,
      "🎄": 1953,
      "🎅": 1954,
      "🎈": 1955,
      "🎉": 1956,
      "🎓": 1957,
      "🎟": 1958,
      "🎤": 1959,
      "🎧": 1960,
      "🎨": 1961,
      "🎩": 1962,
      "🎪": 1963,
      "🎭": 1964,
      "🎰": 1965,
      "🎱": 1966,
      "🎲": 1967,
      "🎵": 1968,
      "🎶": 1969,
      "🎸": 1970,
      "🎼": 1971,
      "🏃": 1972,
      "🏄": 1973,
      "🏆": 1974,
      "🏊": 1975,
      "🏋": 1976,
      "🏑": 1977,
      "🏓": 1978,
      "🏔": 1979,
      "🏘": 1980,
      "🏠": 1981,
      "🏡": 1982,
      "🏢": 1983,
      "🏤": 1984,
      "🏦": 1985,
      "🏩": 1986,
      "🏪": 1987,
      "🏬": 1988,
      "🏭": 1989,
      "🏳": 1990,
      "🏴": 1991,
      "🏹": 1992,
      "🏻": 1993,
      "🏼": 1994,
      "🏽": 1995,
      "🏾": 1996,
      "🏿": 1997,
      "🐁": 1998,
      "🐂": 1999,
      "🐃": 2000,
      "🐄": 2001,
      "🐅": 2002,
      "🐆": 2003,
      "🐈": 2004,
      "🐋": 2005,
      "🐌": 2006,
      "🐍": 2007,
      "🐐": 2008,
      "🐒": 2009,
      "🐓": 2010,
      "🐔": 2011,
      "🐖": 2012,
      "🐙": 2013,
      "🐞": 2014,
      "🐟": 2015,
      "🐠": 2016,
      "🐣": 2017,
      "🐤": 2018,
      "🐥": 2019,
      "🐦": 2020,
      "🐧": 2021,
      "🐭": 2022,
      "🐯": 2023,
      "🐰": 2024,
      "🐱": 2025,
      "🐳": 2026,
      "🐴": 2027,
      "🐵": 2028,
      "🐶": 2029,
      "🐷": 2030,
      "🐸": 2031,
      "🐹": 2032,
      "🐺": 2033,
      "🐻": 2034,
      "🐼": 2035,
      "🐽": 2036,
      "🐾": 2037,
      "👀": 2038,
      "👁": 2039,
      "👂": 2040,
      "👃": 2041,
      "👄": 2042,
      "👅": 2043,
      "👆": 2044,
      "👇": 2045,
      "👈": 2046,
      "👉": 2047,
      "👊": 2048,
      "👋": 2049,
      "👌": 2050,
      "👍": 2051,
      "👎": 2052,
      "👏": 2053,
      "👐": 2054,
      "👑": 2055,
      "👒": 2056,
      "👓": 2057,
      "👕": 2058,
      "👖": 2059,
      "👙": 2060,
      "👜": 2061,
      "👞": 2062,
      "👠": 2063,
      "👢": 2064,
      "👣": 2065,
      "👤": 2066,
      "👥": 2067,
      "👦": 2068,
      "👧": 2069,
      "👨": 2070,
      "👩": 2071,
      "👪": 2072,
      "👫": 2073,
      "👬": 2074,
      "👭": 2075,
      "👮": 2076,
      "👯": 2077,
      "👰": 2078,
      "👱": 2079,
      "👲": 2080,
      "👳": 2081,
      "👴": 2082,
      "👵": 2083,
      "👶": 2084,
      "👷": 2085,
      "👸": 2086,
      "👹": 2087,
      "👺": 2088,
      "👻": 2089,
      "👼": 2090,
      "👽": 2091,
      "👾": 2092,
      "👿": 2093,
      "💀": 2094,
      "💁": 2095,
      "💂": 2096,
      "💃": 2097,
      "💄": 2098,
      "💅": 2099,
      "💇": 2100,
      "💈": 2101,
      "💉": 2102,
      "💊": 2103,
      "💋": 2104,
      "💌": 2105,
      "💍": 2106,
      "💎": 2107,
      "💏": 2108,
      "💑": 2109,
      "💒": 2110,
      "💓": 2111,
      "💔": 2112,
      "💕": 2113,
      "💖": 2114,
      "💗": 2115,
      "💘": 2116,
      "💙": 2117,
      "💚": 2118,
      "💛": 2119,
      "💜": 2120,
      "💝": 2121,
      "💞": 2122,
      "💟": 2123,
      "💡": 2124,
      "💣": 2125,
      "💤": 2126,
      "💥": 2127,
      "💦": 2128,
      "💨": 2129,
      "💩": 2130,
      "💪": 2131,
      "💫": 2132,
      "💬": 2133,
      "💭": 2134,
      "💯": 2135,
      "💰": 2136,
      "💱": 2137,
      "💲": 2138,
      "💳": 2139,
      "💴": 2140,
      "💵": 2141,
      "💶": 2142,
      "💷": 2143,
      "💸": 2144,
      "💺": 2145,
      "💼": 2146,
      "💾": 2147,
      "📂": 2148,
      "📆": 2149,
      "📈": 2150,
      "📉": 2151,
      "📊": 2152,
      "📍": 2153,
      "📎": 2154,
      "📏": 2155,
      "📐": 2156,
      "📒": 2157,
      "📕": 2158,
      "📖": 2159,
      "📘": 2160,
      "📙": 2161,
      "📚": 2162,
      "📝": 2163,
      "📞": 2164,
      "📟": 2165,
      "📠": 2166,
      "📡": 2167,
      "📢": 2168,
      "📯": 2169,
      "📱": 2170,
      "📲": 2171,
      "📷": 2172,
      "📸": 2173,
      "📹": 2174,
      "📺": 2175,
      "📽": 2176,
      "🔄": 2177,
      "🔆": 2178,
      "🔇": 2179,
      "🔍": 2180,
      "🔎": 2181,
      "🔒": 2182,
      "🔔": 2183,
      "🔕": 2184,
      "🔘": 2185,
      "🔜": 2186,
      "🔝": 2187,
      "🔞": 2188,
      "🔥": 2189,
      "🔦": 2190,
      "🔧": 2191,
      "🔨": 2192,
      "🔩": 2193,
      "🔪": 2194,
      "🔫": 2195,
      "🔬": 2196,
      "🔭": 2197,
      "🔮": 2198,
      "🔵": 2199,
      "🔽": 2200,
      "🕊": 2201,
      "🕐": 2202,
      "🕑": 2203,
      "🕛": 2204,
      "🕜": 2205,
      "🕧": 2206,
      "🕯": 2207,
      "🕰": 2208,
      "🕳": 2209,
      "🕶": 2210,
      "🕷": 2211,
      "🕸": 2212,
      "🕺": 2213,
      "🖐": 2214,
      "🖕": 2215,
      "🖖": 2216,
      "🖤": 2217,
      "🗓": 2218,
      "🗡": 2219,
      "🗣": 2220,
      "🗯": 2221,
      "🗿": 2222,
      "😀": 2223,
      "😁": 2224,
      "😂": 2225,
      "😃": 2226,
      "😄": 2227,
      "😅": 2228,
      "😆": 2229,
      "😇": 2230,
      "😈": 2231,
      "😉": 2232,
      "😊": 2233,
      "😋": 2234,
      "😌": 2235,
      "😍": 2236,
      "😎": 2237,
      "😏": 2238,
      "😐": 2239,
      "😑": 2240,
      "😒": 2241,
      "😓": 2242,
      "😔": 2243,
      "😕": 2244,
      "😖": 2245,
      "😗": 2246,
      "😘": 2247,
      "😙": 2248,
      "😚": 2249,
      "😛": 2250,
      "😜": 2251,
      "😝": 2252,
      "😞": 2253,
      "😟": 2254,
      "😠": 2255,
      "😡": 2256,
      "😢": 2257,
      "😣": 2258,
      "😤": 2259,
      "😥": 2260,
      "😦": 2261,
      "😧": 2262,
      "😨": 2263,
      "😩": 2264,
      "😪": 2265,
      "😫": 2266,
      "😬": 2267,
      "😭": 2268,
      "😮": 2269,
      "😯": 2270,
      "😰": 2271,
      "😱": 2272,
      "😲": 2273,
      "😳": 2274,
      "😴": 2275,
      "😵": 2276,
      "😶": 2277,
      "😷": 2278,
      "😸": 2279,
      "😹": 2280,
      "😺": 2281,
      "😻": 2282,
      "😼": 2283,
      "😽": 2284,
      "😾": 2285,
      "😿": 2286,
      "🙀": 2287,
      "🙁": 2288,
      "🙂": 2289,
      "🙃": 2290,
      "🙄": 2291,
      "🙅": 2292,
      "🙆": 2293,
      "🙇": 2294,
      "🙈": 2295,
      "🙉": 2296,
      "🙊": 2297,
      "🙋": 2298,
      "🙌": 2299,
      "🙍": 2300,
      "🙎": 2301,
      "🙏": 2302,
      "🚀": 2303,
      "🚂": 2304,
      "🚃": 2305,
      "🚆": 2306,
      "🚋": 2307,
      "🚌": 2308,
      "🚐": 2309,
      "🚑": 2310,
      "🚓": 2311,
      "🚔": 2312,
      "🚕": 2313,
      "🚗": 2314,
      "🚘": 2315,
      "🚙": 2316,
      "🚚": 2317,
      "🚛": 2318,
      "🚞": 2319,
      "🚢": 2320,
      "🚣": 2321,
      "🚤": 2322,
      "🚦": 2323,
      "🚧": 2324,
      "🚨": 2325,
      "🚪": 2326,
      "🚫": 2327,
      "🚬": 2328,
      "🚴": 2329,
      "🚵": 2330,
      "🚶": 2331,
      "🚷": 2332,
      "🚿": 2333,
      "🛁": 2334,
      "🛑": 2335,
      "🛠": 2336,
      "🛡": 2337,
      "🛢": 2338,
      "🛸": 2339,
      "🤐": 2340,
      "🤑": 2341,
      "🤒": 2342,
      "🤓": 2343,
      "🤔": 2344,
      "🤕": 2345,
      "🤖": 2346,
      "🤗": 2347,
      "🤘": 2348,
      "🤙": 2349,
      "🤚": 2350,
      "🤛": 2351,
      "🤜": 2352,
      "🤝": 2353,
      "🤠": 2354,
      "🤡": 2355,
      "🤢": 2356,
      "🤣": 2357,
      "🤤": 2358,
      "🤦": 2359,
      "🤧": 2360,
      "🤨": 2361,
      "🤩": 2362,
      "🤪": 2363,
      "🤫": 2364,
      "🤬": 2365,
      "🤭": 2366,
      "🤯": 2367,
      "🤴": 2368,
      "🤵": 2369,
      "🤷": 2370,
      "🤹": 2371,
      "🤺": 2372,
      "🤼": 2373,
      "🤽": 2374,
      "🤾": 2375,
      "🤿": 2376,
      "🥁": 2377,
      "🥂": 2378,
      "🥃": 2379,
      "🥇": 2380,
      "🥉": 2381,
      "🥊": 2382,
      "🥐": 2383,
      "🥑": 2384,
      "🥒": 2385,
      "🥕": 2386,
      "🥖": 2387,
      "🥗": 2388,
      "🥚": 2389,
      "🥛": 2390,
      "🥤": 2391,
      "🥩": 2392,
      "🥳": 2393,
      "🥴": 2394,
      "🥺": 2395,
      "🦁": 2396,
      "🦅": 2397,
      "🦇": 2398,
      "🦉": 2399,
      "🦍": 2400,
      "🦎": 2401,
      "🦜": 2402,
      "🦳": 2403,
      "🦶": 2404,
      "🦷": 2405,
      "🧐": 2406,
      "🧑": 2407,
      "🧔": 2408,
      "🧞": 2409,
      "🧣": 2410,
      "🧨": 2411,
      "🧱": 2412,
      "🩸": 2413,
      "🪑": 2414,
      "🪟": 2415,
      "🫧": 2416,
      "🫵": 2417,
      "то": 2418,
      "на": 2419,
      "ра": 2420,
      "по": 2421,
      "но": 2422,
      "ст": 2423,
      "не": 2424,
      "ро": 2425,
      "ко": 2426,
      "ет": 2427,
      "ни": 2428,
      "ка": 2429,
      "ли": 2430,
      "го": 2431,
      "ва": 2432,
      "во": 2433,
      "ре": 2434,
      "ит": 2435,
      "ла": 2436,
      "за": 2437,
      "ен": 2438,
      "да": 2439,
      "ло": 2440,
      "ль": 2441,
      "ри": 2442,
      "ть": 2443,
      "де": 2444,
      "..": 2445,
      "ки": 2446,
      "ся": 2447,
      "до": 2448,
      "мо": 2449,
      "та": 2450,
      "те": 2451,
      "ны": 2452,
      "ле": 2453,
      "ма": 2454,
      "ве": 2455,
      "се": 2456,
      "че": 2457,
      "ру": 2458,
      "вы": 2459,
      "что": 2460,
      "от": 2461,
      "му": 2462,
      "ми": 2463,
      "про": 2464,
      "со": 2465,
      "ме": 2466,
      "ку": 2467,
      "бо": 2468,
      "же": 2469,
      "ви": 2470,
      "ди": 2471,
      "си": 2472,
      "ти": 2473,
      "хо": 2474,
      "па": 2475,
      "бы": 2476,
      "ну": 2477,
      "пе": 2478,
      "ста": 2479,
      "ду": 2480,
      "бе": 2481,
      "ча": 2482,
      "ля": 2483,
      "са": 2484,
      "сь": 2485,
      "при": 2486,
      "из": 2487,
      "ше": 2488,
      "сто": 2489,
      "ты": 2490,
      "...": 2491,
      "чи": 2492,
      "га": 2493,
      "ши": 2494,
      "бу": 2495,
      "это": 2496,
      "ба": 2497,
      "ры": 2498,
      "жи": 2499,
      "ить": 2500,
      "лу": 2501,
      "По": 2502,
      "ют": 2503,
      "об": 2504,
      "раз": 2505,
      "ски": 2506,
      "пи": 2507,
      "лю": 2508,
      "ци": 2509,
      "ско": 2510,
      "все": 2511,
      "мен": 2512,
      "ите": 2513,
      "как": 2514,
      "он": 2515,
      "шь": 2516,
      "ска": 2517,
      "ня": 2518,
      "ту": 2519,
      "ный": 2520,
      "сть": 2521,
      "ние": 2522,
      "ще": 2523,
      "гда": 2524,
      "мы": 2525,
      "жа": 2526,
      "пре": 2527,
      "щи": 2528,
      "сти": 2529,
      "ву": 2530,
      "ря": 2531,
      "ется": 2532,
      "су": 2533,
      "пра": 2534,
      "би": 2535,
      "?-": 2536,
      "ной": 2537,
      "ша": 2538,
      "ке": 2539,
      "ги": 2540,
      "зна": 2541,
      "гово": 2542,
      "дет": 2543,
      "пу": 2544,
      "ос": 2545,
      "под": 2546,
      "ень": 2547,
      "ход": 2548,
      "На": 2549,
      "ния": 2550,
      "лько": 2551,
      "сли": 2552,
      "ак": 2553,
      "лся": 2554,
      "его": 2555,
      "ды": 2556,
      "сле": 2557,
      "ей": 2558,
      "сво": 2559,
      "ного": 2560,
      "рит": 2561,
      "вает": 2562,
      "ин": 2563,
      "вер": 2564,
      "вать": 2565,
      "лы": 2566,
      "ха": 2567,
      "ные": 2568,
      "кра": 2569,
      "кой": 2570,
      "так": 2571,
      "ер": 2572,
      "лет": 2573,
      "Да": 2574,
      "пер": 2575,
      "кто": 2576,
      "гу": 2577,
      "ца": 2578,
      ".-": 2579,
      "пере": 2580,
      "меня": 2581,
      "ят": 2582,
      "вет": 2583,
      "ком": 2584,
      "дру": 2585,
      "це": 2586,
      "зы": 2587,
      "льно": 2588,
      "дь": 2589,
      "зи": 2590,
      "гра": 2591,
      "мож": 2592,
      "дела": 2593,
      "ем": 2594,
      "чит": 2595,
      "Ну": 2596,
      "том": 2597,
      "сы": 2598,
      "зо": 2599,
      "нет": 2600,
      "ров": 2601,
      "ский": 2602,
      "бя": 2603,
      "мне": 2604,
      "жен": 2605,
      "стра": 2606,
      "кото": 2607,
      "ных": 2608,
      "од": 2609,
      "Рос": 2610,
      "ная": 2611,
      "спо": 2612,
      "когда": 2613,
      "чу": 2614,
      "Не": 2615,
      "нь": 2616,
      "ходит": 2617,
      "Росси": 2618,
      "!!": 2619,
      "ков": 2620,
      "вре": 2621,
      "рет": 2622,
      "фи": 2623,
      "Ко": 2624,
      "чно": 2625,
      "кон": 2626,
      "За": 2627,
      "пла": 2628,
      "говорит": 2629,
      "ут": 2630,
      "смо": 2631,
      "ща": 2632,
      "она": 2633,
      "\".": 2634,
      "мя": 2635,
      "дол": 2636,
      "нов": 2637,
      "уже": 2638,
      "только": 2639,
      ":-": 2640,
      "рас": 2641,
      "Но": 2642,
      "боль": 2643,
      "Ма": 2644,
      "вс": 2645,
      "ство": 2646,
      "дума": 2647,
      "ешь": 2648,
      "ёт": 2649,
      "дин": 2650,
      "гла": 2651,
      "их": 2652,
      "сло": 2653,
      "нима": 2654,
      "для": 2655,
      "воз": 2656,
      "чем": 2657,
      "вой": 2658,
      "ден": 2659,
      "чему": 2660,
      "ник": 2661,
      "лись": 2662,
      "тра": 2663,
      "Вы": 2664,
      "три": 2665,
      "лове": 2666,
      "шо": 2667,
      "ное": 2668,
      "ств": 2669,
      "ром": 2670,
      "Ка": 2671,
      "ете": 2672,
      "сту": 2673,
      "00": 2674,
      "сказа": 2675,
      "ее": 2676,
      "ться": 2677,
      "там": 2678,
      "Пу": 2679,
      "бра": 2680,
      "ху": 2681,
      "день": 2682,
      "или": 2683,
      "ему": 2684,
      "ным": 2685,
      "есть": 2686,
      "сси": 2687,
      "они": 2688,
      "Что": 2689,
      "вот": 2690,
      "ор": 2691,
      "лен": 2692,
      "ан": 2693,
      "если": 2694,
      "будет": 2695,
      "слу": 2696,
      "вто": 2697,
      "чтобы": 2698,
      "ции": 2699,
      "йте": 2700,
      "Как": 2701,
      "им": 2702,
      "!-": 2703,
      "ге": 2704,
      "вый": 2705,
      "ар": 2706,
      "Если": 2707,
      "жик": 2708,
      "вод": 2709,
      "При": 2710,
      "шка": 2711,
      "пол": 2712,
      "Во": 2713,
      "спра": 2714,
      "чего": 2715,
      "после": 2716,
      "сте": 2717,
      "тов": 2718,
      "тебя": 2719,
      "тре": 2720,
      "челове": 2721,
      "став": 2722,
      "жу": 2723,
      "пред": 2724,
      "мер": 2725,
      "Ва": 2726,
      "ную": 2727,
      "Это": 2728,
      "стро": 2729,
      "которы": 2730,
      "России": 2731,
      "кры": 2732,
      "ном": 2733,
      "нас": 2734,
      "Мо": 2735,
      "итель": 2736,
      "рав": 2737,
      "вас": 2738,
      "лось": 2739,
      "год": 2740,
      "нии": 2741,
      "без": 2742,
      "всё": 2743,
      "вают": 2744,
      "мой": 2745,
      "чка": 2746,
      "Ты": 2747,
      "рез": 2748,
      "До": 2749,
      "дер": 2750,
      "пы": 2751,
      "голо": 2752,
      "ствен": 2753,
      "Про": 2754,
      "прав": 2755,
      "род": 2756,
      "Пути": 2757,
      "стре": 2758,
      "можно": 2759,
      "кла": 2760,
      "Му": 2761,
      "рабо": 2762,
      "тер": 2763,
      "Ра": 2764,
      "вал": 2765,
      "лась": 2766,
      "был": 2767,
      "муж": 2768,
      "фе": 2769,
      "кого": 2770,
      "зя": 2771,
      "каза": 2772,
      "спраши": 2773,
      "дит": 2774,
      "каж": 2775,
      "цы": 2776,
      "ющи": 2777,
      "чита": 2778,
      "вра": 2779,
      "рь": 2780,
      "щё": 2781,
      "было": 2782,
      "лей": 2783,
      "вали": 2784,
      "ника": 2785,
      "полу": 2786,
      "сно": 2787,
      "жно": 2788,
      "ез": 2789,
      "То": 2790,
      "ней": 2791,
      "тебе": 2792,
      "него": 2793,
      "ской": 2794,
      "стоя": 2795,
      "перь": 2796,
      "нача": 2797,
      "Нет": 2798,
      "мет": 2799,
      "ские": 2800,
      "чь": 2801,
      "чина": 2802,
      "пя": 2803,
      "прос": 2804,
      "надо": 2805,
      "чень": 2806,
      "шу": 2807,
      "ского": 2808,
      "жиз": 2809,
      "хоро": 2810,
      "две": 2811,
      "само": 2812,
      "дут": 2813,
      "ск": 2814,
      "ются": 2815,
      "20": 2816,
      "доро": 2817,
      "ита": 2818,
      "Вот": 2819,
      "Де": 2820,
      "дом": 2821,
      "таки": 2822,
      "обще": 2823,
      "вая": 2824,
      "время": 2825,
      "Па": 2826,
      "два": 2827,
      "ний": 2828,
      "кая": 2829,
      "один": 2830,
      "рус": 2831,
      "оста": 2832,
      "просто": 2833,
      "кру": 2834,
      "тель": 2835,
      "может": 2836,
      "пло": 2837,
      "женщи": 2838,
      "\",": 2839,
      "ещё": 2840,
      "раб": 2841,
      "вич": 2842,
      "жда": 2843,
      "чет": 2844,
      "ску": 2845,
      "Со": 2846,
      "рт": 2847,
      "ответ": 2848,
      "тому": 2849,
      "спе": 2850,
      "кан": 2851,
      "ства": 2852,
      "дно": 2853,
      "вается": 2854,
      "час": 2855,
      "бой": 2856,
      "смот": 2857,
      "почему": 2858,
      "еще": 2859,
      "нее": 2860,
      "цу": 2861,
      "вам": 2862,
      "вно": 2863,
      "?!": 2864,
      "Так": 2865,
      "ция": 2866,
      "дей": 2867,
      "ред": 2868,
      "кое": 2869,
      "ья": 2870,
      "росси": 2871,
      "вя": 2872,
      "них": 2873,
      "сты": 2874,
      "шел": 2875,
      "ских": 2876,
      "ству": 2877,
      "Бо": 2878,
      "где": 2879,
      "зиден": 2880,
      "бля": 2881,
      "Хо": 2882,
      "рой": 2883,
      "вши": 2884,
      "чё": 2885,
      "сдела": 2886,
      "спрашивает": 2887,
      "ран": 2888,
      "сла": 2889,
      "дя": 2890,
      "тут": 2891,
      "яв": 2892,
      "гру": 2893,
      "тво": 2894,
      "больше": 2895,
      "работа": 2896,
      "Он": 2897,
      "хи": 2898,
      "очень": 2899,
      "нам": 2900,
      "ню": 2901,
      "ван": 2902,
      "того": 2903,
      "ится": 2904,
      "ил": 2905,
      "тя": 2906,
      "писа": 2907,
      "теле": 2908,
      "потом": 2909,
      "мери": 2910,
      "коро": 2911,
      "сказал": 2912,
      "луч": 2913,
      "рти": 2914,
      "--": 2915,
      "ев": 2916,
      "нец": 2917,
      "бли": 2918,
      "ман": 2919,
      "сек": 2920,
      "Те": 2921,
      "вые": 2922,
      "мужик": 2923,
      "Са": 2924,
      "друг": 2925,
      "ново": 2926,
      "Го": 2927,
      "себе": 2928,
      "сей": 2929,
      "рят": 2930,
      "цен": 2931,
      "пять": 2932,
      "бира": 2933,
      "Укра": 2934,
      "тру": 2935,
      "деву": 2936,
      "зу": 2937,
      "даже": 2938,
      "поня": 2939,
      "ление": 2940,
      "года": 2941,
      "От": 2942,
      "пока": 2943,
      "человек": 2944,
      "иться": 2945,
      "себя": 2946,
      "Ни": 2947,
      "Все": 2948,
      "вай": 2949,
      "тоже": 2950,
      "лли": 2951,
      "кро": 2952,
      "Когда": 2953,
      "работ": 2954,
      "чает": 2955,
      "спа": 2956,
      "вари": 2957,
      "быть": 2958,
      "много": 2959,
      "тив": 2960,
      "фо": 2961,
      "виде": 2962,
      "рен": 2963,
      "сколько": 2964,
      "Путин": 2965,
      "Из": 2966,
      "рю": 2967,
      "фа": 2968,
      "ёл": 2969,
      "тро": 2970,
      "__": 2971,
      "НА": 2972,
      "теперь": 2973,
      "!!!": 2974,
      "уч": 2975,
      "бор": 2976,
      "кри": 2977,
      "поли": 2978,
      "лек": 2979,
      "сов": 2980,
      "всех": 2981,
      "могу": 2982,
      "тор": 2983,
      "тем": 2984,
      "жо": 2985,
      "сме": 2986,
      "эти": 2987,
      "Почему": 2988,
      "шки": 2989,
      "разу": 2990,
      "проси": 2991,
      "хот": 2992,
      "кий": 2993,
      "обра": 2994,
      "Украи": 2995,
      "Вла": 2996,
      "нок": 2997,
      "друго": 2998,
      "ники": 2999,
      "чик": 3000,
      "над": 3001,
      "Та": 3002,
      "зво": 3003,
      "отве": 3004,
      "поло": 3005,
      "люб": 3006,
      "Ба": 3007,
      "пор": 3008,
      "Ми": 3009,
      "ью": 3010,
      "президен": 3011,
      "ним": 3012,
      "уда": 3013,
      "ская": 3014,
      "вил": 3015,
      "чку": 3016,
      "пой": 3017,
      "всем": 3018,
      "ходи": 3019,
      "ктор": 3020,
      "объ": 3021,
      "кар": 3022,
      "нул": 3023,
      "слы": 3024,
      "игра": 3025,
      "тере": 3026,
      "кие": 3027,
      "мени": 3028,
      "её": 3029,
      "!\"": 3030,
      "ём": 3031,
      "бро": 3032,
      "реши": 3033,
      "Че": 3034,
      "шен": 3035,
      "клю": 3036,
      "моло": 3037,
      "цию": 3038,
      "нно": 3039,
      "пода": 3040,
      "чки": 3041,
      "Пет": 3042,
      "сни": 3043,
      "нию": 3044,
      "кор": 3045,
      "авто": 3046,
      "тно": 3047,
      "шли": 3048,
      "сейчас": 3049,
      "ква": 3050,
      "РА": 3051,
      "такой": 3052,
      "зе": 3053,
      "СТ": 3054,
      "Влади": 3055,
      "рить": 3056,
      "гля": 3057,
      "кре": 3058,
      "хва": 3059,
      "аль": 3060,
      "Си": 3061,
      "соб": 3062,
      "будь": 3063,
      "РО": 3064,
      "бан": 3065,
      "еха": 3066,
      "дой": 3067,
      "куда": 3068,
      "жена": 3069,
      "ками": 3070,
      "Бе": 3071,
      "бле": 3072,
      "ничего": 3073,
      "россий": 3074,
      "мир": 3075,
      "Ве": 3076,
      "хуй": 3077,
      "сс": 3078,
      "шей": 3079,
      "вз": 3080,
      "вели": 3081,
      "10": 3082,
      "шко": 3083,
      "тот": 3084,
      "через": 3085,
      "цо": 3086,
      "руб": 3087,
      "обо": 3088,
      "нег": 3089,
      "ными": 3090,
      "пар": 3091,
      "лё": 3092,
      "АА": 3093,
      "дня": 3094,
      "гли": 3095,
      "пен": 3096,
      "стал": 3097,
      "ников": 3098,
      "всегда": 3099,
      "маши": 3100,
      "деньги": 3101,
      "какой": 3102,
      "нем": 3103,
      "».": 3104,
      "нечно": 3105,
      "откры": 3106,
      "жде": 3107,
      "начина": 3108,
      "пря": 3109,
      "чер": 3110,
      "ис": 3111,
      "лучше": 3112,
      "нут": 3113,
      "которые": 3114,
      "пить": 3115,
      "Мы": 3116,
      "мый": 3117,
      "жить": 3118,
      "который": 3119,
      "вание": 3120,
      "Ме": 3121,
      "фор": 3122,
      "дома": 3123,
      "име": 3124,
      "??": 3125,
      "помо": 3126,
      "понима": 3127,
      "....": 3128,
      "обе": 3129,
      "ША": 3130,
      "сом": 3131,
      "шёл": 3132,
      "боле": 3133,
      "дёт": 3134,
      "реть": 3135,
      "шла": 3136,
      "ТО": 3137,
      "перед": 3138,
      "одно": 3139,
      "Ле": 3140,
      "лом": 3141,
      "место": 3142,
      "щу": 3143,
      "вро": 3144,
      "сит": 3145,
      "люди": 3146,
      "мужи": 3147,
      "всего": 3148,
      "вых": 3149,
      "была": 3150,
      "чен": 3151,
      "нибудь": 3152,
      "ал": 3153,
      "счита": 3154,
      "ительно": 3155,
      "сан": 3156,
      "дво": 3157,
      "прави": 3158,
      "жды": 3159,
      "дать": 3160,
      "ваться": 3161,
      "спи": 3162,
      "той": 3163,
      "назы": 3164,
      "нуть": 3165,
      "этого": 3166,
      "ок": 3167,
      "ках": 3168,
      "такое": 3169,
      "После": 3170,
      "тех": 3171,
      "этом": 3172,
      "потому": 3173,
      "жизни": 3174,
      "стви": 3175,
      "дов": 3176,
      "кол": 3177,
      "жду": 3178,
      "чай": 3179,
      "ском": 3180,
      "жет": 3181,
      "ведь": 3182,
      "этот": 3183,
      "хоте": 3184,
      "чера": 3185,
      "дал": 3186,
      "говори": 3187,
      "ница": 3188,
      "буду": 3189,
      "логи": 3190,
      "бер": 3191,
      "НЕ": 3192,
      "ющий": 3193,
      "шего": 3194,
      "милли": 3195,
      "рии": 3196,
      "вочка": 3197,
      "сам": 3198,
      "ления": 3199,
      "делать": 3200,
      "Ста": 3201,
      "Мос": 3202,
      "взя": 3203,
      "дает": 3204,
      "...-": 3205,
      "НО": 3206,
      "Ре": 3207,
      "следу": 3208,
      "были": 3209,
      "любо": 3210,
      "жизнь": 3211,
      "рам": 3212,
      "пил": 3213,
      "Мужик": 3214,
      "годня": 3215,
      "мни": 3216,
      "сем": 3217,
      "рая": 3218,
      "ееее": 3219,
      "Лю": 3220,
      "США": 3221,
      "нужно": 3222,
      "Ро": 3223,
      "вла": 3224,
      "аа": 3225,
      "лов": 3226,
      "тельно": 3227,
      "мини": 3228,
      "будут": 3229,
      "льный": 3230,
      "ум": 3231,
      "подо": 3232,
      "сегодня": 3233,
      "нали": 3234,
      "дят": 3235,
      "попа": 3236,
      "мол": 3237,
      "Же": 3238,
      "лин": 3239,
      "ность": 3240,
      "амери": 3241,
      "послед": 3242,
      "ЛИ": 3243,
      "эк": 3244,
      "лень": 3245,
      "Ку": 3246,
      "доста": 3247,
      "Муж": 3248,
      "вую": 3249,
      "мага": 3250,
      "свя": 3251,
      "зад": 3252,
      "еба": 3253,
      "хорошо": 3254,
      "Ин": 3255,
      "сторо": 3256,
      "юсь": 3257,
      "думал": 3258,
      "ссо": 3259,
      "дели": 3260,
      "шку": 3261,
      "рак": 3262,
      "Пе": 3263,
      "КА": 3264,
      "держа": 3265,
      "произ": 3266,
      "ПО": 3267,
      "нес": 3268,
      "вым": 3269,
      "испо": 3270,
      "сразу": 3271,
      "домой": 3272,
      "казы": 3273,
      "кую": 3274,
      "стоит": 3275,
      "ули": 3276,
      "пута": 3277,
      "гре": 3278,
      "сса": 3279,
      "нако": 3280,
      "сви": 3281,
      "пенси": 3282,
      "пожа": 3283,
      "юще": 3284,
      "тогда": 3285,
      "Кто": 3286,
      "отвечает": 3287,
      "точно": 3288,
      "рого": 3289,
      "вопрос": 3290,
      "суда": 3291,
      "ген": 3292,
      "**": 3293,
      "тся": 3294,
      "льше": 3295,
      "свои": 3296,
      "ходят": 3297,
      "значит": 3298,
      "Бу": 3299,
      "миро": 3300,
      "знаю": 3301,
      "дра": 3302,
      "жение": 3303,
      "Се": 3304,
      "Пре": 3305,
      "ян": 3306,
      "маль": 3307,
      "бло": 3308,
      "МИ": 3309,
      "сер": 3310,
      "вообще": 3311,
      "грам": 3312,
      "прода": 3313,
      "ший": 3314,
      "ское": 3315,
      "этому": 3316,
      "мар": 3317,
      "люби": 3318,
      "укра": 3319,
      "зин": 3320,
      "вания": 3321,
      "свою": 3322,
      "ВО": 3323,
      "оче": 3324,
      "рок": 3325,
      "Россия": 3326,
      "Она": 3327,
      "Под": 3328,
      "гов": 3329,
      "наши": 3330,
      "вез": 3331,
      "лый": 3332,
      "побе": 3333,
      "своей": 3334,
      "КО": 3335,
      "опять": 3336,
      "нер": 3337,
      "наз": 3338,
      "тан": 3339,
      "крас": 3340,
      "людей": 3341,
      "Од": 3342,
      "стит": 3343,
      "бар": 3344,
      "Гос": 3345,
      "чил": 3346,
      "деть": 3347,
      "жела": 3348,
      "гает": 3349,
      "слова": 3350,
      "йти": 3351,
      "дре": 3352,
      "цев": 3353,
      "соба": 3354,
      "кажды": 3355,
      "нин": 3356,
      "нек": 3357,
      "Моск": 3358,
      "Раз": 3359,
      "уме": 3360,
      "оо": 3361,
      "против": 3362,
      "встре": 3363,
      "чить": 3364,
      "горо": 3365,
      "дро": 3366,
      "сосе": 3367,
      "свет": 3368,
      "жил": 3369,
      "коно": 3370,
      "Ви": 3371,
      "лета": 3372,
      "исто": 3373,
      "ставля": 3374,
      "буде": 3375,
      "предло": 3376,
      "глу": 3377,
      "интере": 3378,
      "лез": 3379,
      "СС": 3380,
      "спроси": 3381,
      "15": 3382,
      "?\"": 3383,
      "вайте": 3384,
      "ВА": 3385,
      "мужчи": 3386,
      "плат": 3387,
      "Ан": 3388,
      "други": 3389,
      "шая": 3390,
      "рень": 3391,
      "сня": 3392,
      "стве": 3393,
      "месте": 3394,
      "вили": 3395,
      "мира": 3396,
      "сол": 3397,
      "пробле": 3398,
      "бла": 3399,
      "част": 3400,
      "вого": 3401,
      "сказать": 3402,
      "чув": 3403,
      "ких": 3404,
      "закон": 3405,
      "19": 3406,
      "купа": 3407,
      "американ": 3408,
      "дите": 3409,
      "100": 3410,
      "тиче": 3411,
      "Су": 3412,
      "одна": 3413,
      "расска": 3414,
      "весь": 3415,
      "пиз": 3416,
      "рублей": 3417,
      "хочу": 3418,
      "свой": 3419,
      "Евро": 3420,
      "вое": 3421,
      "ским": 3422,
      "никогда": 3423,
      "разо": 3424,
      "пит": 3425,
      "фон": 3426,
      "объя": 3427,
      "вся": 3428,
      "готов": 3429,
      "вол": 3430,
      "коло": 3431,
      "рый": 3432,
      "мор": 3433,
      "дву": 3434,
      "██": 3435,
      "нах": 3436,
      "народ": 3437,
      "кому": 3438,
      "меся": 3439,
      "эта": 3440,
      "Один": 3441,
      "Пер": 3442,
      "мая": 3443,
      "кур": 3444,
      "чный": 3445,
      "всю": 3446,
      "Путина": 3447,
      "Мне": 3448,
      "рот": 3449,
      "долго": 3450,
      "нос": 3451,
      "Жена": 3452,
      "жит": 3453,
      "ночь": 3454,
      "между": 3455,
      "пыта": 3456,
      "ноги": 3457,
      "Теперь": 3458,
      "Ру": 3459,
      "мате": 3460,
      "стать": 3461,
      "явля": 3462,
      "денег": 3463,
      "вести": 3464,
      "стя": 3465,
      "гро": 3466,
      "реди": 3467,
      "драв": 3468,
      "Зна": 3469,
      "филь": 3470,
      "менно": 3471,
      "кли": 3472,
      "ально": 3473,
      "ёр": 3474,
      "вест": 3475,
      "говорят": 3476,
      "----": 3477,
      "жите": 3478,
      "человека": 3479,
      "обы": 3480,
      "нулся": 3481,
      "скую": 3482,
      "НИ": 3483,
      "ток": 3484,
      "гром": 3485,
      "краси": 3486,
      "шло": 3487,
      "гор": 3488,
      "офи": 3489,
      "слыша": 3490,
      "приходит": 3491,
      "написа": 3492,
      "уди": 3493,
      "еть": 3494,
      "пара": 3495,
      "зая": 3496,
      "каждый": 3497,
      "верь": 3498,
      "смотре": 3499,
      "нием": 3500,
      "ЛА": 3501,
      "узна": 3502,
      "мень": 3503,
      "холо": 3504,
      "глаза": 3505,
      "зем": 3506,
      "десь": 3507,
      "долла": 3508,
      "фут": 3509,
      "отли": 3510,
      "женщина": 3511,
      "рети": 3512,
      "Ла": 3513,
      "нный": 3514,
      "станов": 3515,
      "ье": 3516,
      "дере": 3517,
      "неде": 3518,
      "глав": 3519,
      "нера": 3520,
      "плохо": 3521,
      "оте": 3522,
      "блять": 3523,
      "поз": 3524,
      "звони": 3525,
      "некдо": 3526,
      "столько": 3527,
      "Только": 3528,
      "работу": 3529,
      "вут": 3530,
      "мон": 3531,
      "лег": 3532,
      "щий": 3533,
      "ности": 3534,
      "сами": 3535,
      "дово": 3536,
      "пал": 3537,
      "ДА": 3538,
      "зап": 3539,
      "пера": 3540,
      "давно": 3541,
      "ньше": 3542,
      "Об": 3543,
      "ваю": 3544,
      "дить": 3545,
      "дел": 3546,
      ":\"": 3547,
      "успе": 3548,
      "тый": 3549,
      "выбо": 3550,
      "рий": 3551,
      "никто": 3552,
      "деся": 3553,
      "малень": 3554,
      "рил": 3555,
      "рите": 3556,
      "вала": 3557,
      "Хоро": 3558,
      "тол": 3559,
      "язы": 3560,
      "луй": 3561,
      "хра": 3562,
      "начала": 3563,
      "Они": 3564,
      "Ки": 3565,
      "щен": 3566,
      "пле": 3567,
      "чат": 3568,
      "Амери": 3569,
      "ради": 3570,
      "мина": 3571,
      "стов": 3572,
      "зер": 3573,
      "рия": 3574,
      "сили": 3575,
      "дви": 3576,
      "ГО": 3577,
      "знает": 3578,
      "стер": 3579,
      "слуша": 3580,
      "госуда": 3581,
      "in": 3582,
      "лит": 3583,
      "нави": 3584,
      "видел": 3585,
      "снова": 3586,
      "пуска": 3587,
      "эр": 3588,
      "ЛО": 3589,
      "»,": 3590,
      "туда": 3591,
      "совсем": 3592,
      "дело": 3593,
      "съ": 3594,
      "сю": 3595,
      "сред": 3596,
      "долж": 3597,
      "чать": 3598,
      "Ди": 3599,
      "коман": 3600,
      "дил": 3601,
      "чается": 3602,
      "согла": 3603,
      "евре": 3604,
      "РЕ": 3605,
      "доб": 3606,
      "решил": 3607,
      "ДЕ": 3608,
      "вку": 3609,
      "вом": 3610,
      "щается": 3611,
      "новый": 3612,
      "пусти": 3613,
      "году": 3614,
      "ряд": 3615,
      "хоть": 3616,
      "деле": 3617,
      "кам": 3618,
      "ети": 3619,
      "бес": 3620,
      "ровать": 3621,
      "ган": 3622,
      "нему": 3623,
      "нор": 3624,
      "девушка": 3625,
      "Ар": 3626,
      "Ду": 3627,
      "давай": 3628,
      "зывает": 3629,
      "езжа": 3630,
      "гая": 3631,
      "er": 3632,
      "Потому": 3633,
      "мит": 3634,
      "зар": 3635,
      "пример": 3636,
      ".\"": 3637,
      "зав": 3638,
      "льник": 3639,
      "одного": 3640,
      "дев": 3641,
      "мые": 3642,
      "ино": 3643,
      "кварти": 3644,
      "Одна": 3645,
      "НЫ": 3646,
      "зачем": 3647,
      "соз": 3648,
      "Вовочка": 3649,
      "сделать": 3650,
      "дали": 3651,
      "12": 3652,
      "дан": 3653,
      "стран": 3654,
      "сё": 3655,
      "бал": 3656,
      "ТЬ": 3657,
      "говари": 3658,
      "чешь": 3659,
      "Ива": 3660,
      "вший": 3661,
      "жешь": 3662,
      "заме": 3663,
      "____": 3664,
      "кци": 3665,
      "такая": 3666,
      "пись": 3667,
      "ел": 3668,
      "лан": 3669,
      "занима": 3670,
      "Через": 3671,
      "стой": 3672,
      "йца": 3673,
      "нами": 3674,
      "уби": 3675,
      "нович": 3676,
      "сот": 3677,
      "собира": 3678,
      "анекдо": 3679,
      "нуж": 3680,
      "Владимир": 3681,
      "вдруг": 3682,
      "кло": 3683,
      "такие": 3684,
      "ступ": 3685,
      "поте": 3686,
      "могут": 3687,
      "вну": 3688,
      "должен": 3689,
      "интер": 3690,
      "минут": 3691,
      "кономи": 3692,
      "понял": 3693,
      "нару": 3694,
      "равно": 3695,
      "an": 3696,
      "нар": 3697,
      "бере": 3698,
      "шие": 3699,
      "тю": 3700,
      "здесь": 3701,
      "мужчина": 3702,
      "Га": 3703,
      "Кон": 3704,
      "ните": 3705,
      "моби": 3706,
      "своего": 3707,
      "своих": 3708,
      "обя": 3709,
      "смотрит": 3710,
      "мента": 3711,
      "тыся": 3712,
      "любов": 3713,
      "часть": 3714,
      "другой": 3715,
      "видит": 3716,
      "одной": 3717,
      "ходить": 3718,
      "Медве": 3719,
      "вчера": 3720,
      "пора": 3721,
      "30": 3722,
      "несколько": 3723,
      "on": 3724,
      "мент": 3725,
      "гражда": 3726,
      "большо": 3727,
      "бога": 3728,
      "50": 3729,
      "Сы": 3730,
      "жем": 3731,
      "приня": 3732,
      "дают": 3733,
      "низ": 3734,
      "жал": 3735,
      "льные": 3736,
      "поч": 3737,
      "ЗА": 3738,
      "пита": 3739,
      "реб": 3740,
      "брать": 3741,
      "дальше": 3742,
      "футбо": 3743,
      "ён": 3744,
      "тон": 3745,
      "туа": 3746,
      "раза": 3747,
      "рин": 3748,
      "мили": 3749,
      "ТЕ": 3750,
      "Тут": 3751,
      "Мама": 3752,
      "конечно": 3753,
      "Деву": 3754,
      "тия": 3755,
      "извест": 3756,
      "пси": 3757,
      "дверь": 3758,
      "нова": 3759,
      "луйста": 3760,
      "еди": 3761,
      "щая": 3762,
      "жения": 3763,
      "экономи": 3764,
      "сил": 3765,
      "смотреть": 3766,
      "более": 3767,
      "нить": 3768,
      "сидит": 3769,
      "говорить": 3770,
      "лять": 3771,
      "блю": 3772,
      "Бы": 3773,
      "кт": 3774,
      "стране": 3775,
      "льзя": 3776,
      "орга": 3777,
      "стали": 3778,
      "вне": 3779,
      "льта": 3780,
      "рова": 3781,
      "сут": 3782,
      "подходит": 3783,
      "ницу": 3784,
      "ющих": 3785,
      "бабу": 3786,
      "государ": 3787,
      "совет": 3788,
      "Тогда": 3789,
      "РИ": 3790,
      "фу": 3791,
      "оне": 3792,
      "Доктор": 3793,
      "али": 3794,
      "второй": 3795,
      "оде": 3796,
      "пти": 3797,
      "правитель": 3798,
      "слово": 3799,
      "Чтобы": 3800,
      "этой": 3801,
      "скоро": 3802,
      "лага": 3803,
      "вле": 3804,
      "OR": 3805,
      "вопро": 3806,
      "ким": 3807,
      "стей": 3808,
      "первый": 3809,
      "рах": 3810,
      "моя": 3811,
      "возможно": 3812,
      "II": 3813,
      "Лу": 3814,
      "запа": 3815,
      "детей": 3816,
      "шения": 3817,
      "ДО": 3818,
      "какая": 3819,
      "мире": 3820,
      "Приходит": 3821,
      "вос": 3822,
      "комна": 3823,
      "рик": 3824,
      "нау": 3825,
      "русский": 3826,
      "ятся": 3827,
      "депута": 3828,
      "какие": 3829,
      "президент": 3830,
      "14": 3831,
      "Гово": 3832,
      "призна": 3833,
      "дам": 3834,
      "двух": 3835,
      "Жен": 3836,
      "ители": 3837,
      "рать": 3838,
      "украин": 3839,
      "МО": 3840,
      "нахуй": 3841,
      "поль": 3842,
      "рей": 3843,
      "шта": 3844,
      "чество": 3845,
      "оказа": 3846,
      "шно": 3847,
      "поя": 3848,
      "думает": 3849,
      "тр": 3850,
      "страны": 3851,
      "смотри": 3852,
      "шут": 3853,
      "пь": 3854,
      "раст": 3855,
      "руки": 3856,
      "покупа": 3857,
      "ответил": 3858,
      "18": 3859,
      "зарпла": 3860,
      "дишь": 3861,
      "жать": 3862,
      "Чу": 3863,
      "ORA": 3864,
      "наро": 3865,
      "мат": 3866,
      "сен": 3867,
      "сок": 3868,
      "постоя": 3869,
      "Чем": 3870,
      "шке": 3871,
      "ющие": 3872,
      "99": 3873,
      "рое": 3874,
      "мати": 3875,
      "хочет": 3876,
      "ТА": 3877,
      "ителя": 3878,
      "мог": 3879,
      "помни": 3880,
      "начинает": 3881,
      "смер": 3882,
      "иг": 3883,
      "доров": 3884,
      "мать": 3885,
      "ВЕ": 3886,
      "сков": 3887,
      "вар": 3888,
      "настоя": 3889,
      "МА": 3890,
      "ступа": 3891,
      "замет": 3892,
      "голову": 3893,
      "бом": 3894,
      "Ге": 3895,
      "Хорошо": 3896,
      "комп": 3897,
      "сын": 3898,
      "све": 3899,
      "кни": 3900,
      "ницы": 3901,
      "ставить": 3902,
      "кола": 3903,
      "завтра": 3904,
      "кс": 3905,
      "дец": 3906,
      "обеща": 3907,
      "стью": 3908,
      "уни": 3909,
      "друз": 3910,
      "ёшь": 3911,
      "рую": 3912,
      "ета": 3913,
      "моз": 3914,
      "круг": 3915,
      "жили": 3916,
      "лишь": 3917,
      "убе": 3918,
      "цей": 3919,
      "пон": 3920,
      "стан": 3921,
      "женщины": 3922,
      "льного": 3923,
      "показа": 3924,
      "вался": 3925,
      "хе": 3926,
      "отно": 3927,
      "хотел": 3928,
      "Сер": 3929,
      "буты": 3930,
      "магази": 3931,
      "иди": 3932,
      "иде": 3933,
      "возвра": 3934,
      "дравству": 3935,
      "РФ": 3936,
      "Слу": 3937,
      "Есть": 3938,
      "нг": 3939,
      "работать": 3940,
      "ЛЕ": 3941,
      "Вам": 3942,
      "вит": 3943,
      "ееееееее": 3944,
      "))": 3945,
      "ваются": 3946,
      "самый": 3947,
      "АААА": 3948,
      "знаете": 3949,
      "рта": 3950,
      "ске": 3951,
      "шение": 3952,
      "подумал": 3953,
      "мама": 3954,
      "газ": 3955,
      "Ско": 3956,
      "КИ": 3957,
      "нельзя": 3958,
      "th": 3959,
      "дура": 3960,
      "явление": 3961,
      "эту": 3962,
      "пожалуйста": 3963,
      "Ту": 3964,
      "Пред": 3965,
      "гом": 3966,
      "чинов": 3967,
      "пья": 3968,
      "наше": 3969,
      "нья": 3970,
      "ехал": 3971,
      "наш": 3972,
      "чке": 3973,
      "Для": 3974,
      "суще": 3975,
      "право": 3976,
      "МЕ": 3977,
      "обяза": 3978,
      "чилось": 3979,
      "чек": 3980,
      "плю": 3981,
      "знаешь": 3982,
      "Трам": 3983,
      "рай": 3984,
      "мест": 3985,
      "золо": 3986,
      "тен": 3987,
      "ожи": 3988,
      "Девушка": 3989,
      "гей": 3990,
      "смы": 3991,
      "мом": 3992,
      "Всё": 3993,
      "ору": 3994,
      "случай": 3995,
      "пан": 3996,
      "чал": 3997,
      "зада": 3998,
      "закры": 3999,
      "стало": 4000,
      "дца": 4001,
      "жены": 4002,
      "Папа": 4003,
      "меч": 4004,
      "рави": 4005,
      "прове": 4006,
      "мед": 4007,
      "город": 4008,
      "уж": 4009,
      "совер": 4010,
      "дети": 4011,
      "шенко": 4012,
      "ЛЬ": 4013,
      "пом": 4014,
      "сказала": 4015,
      "Пи": 4016,
      "часа": 4017,
      "ях": 4018,
      "продол": 4019,
      "профе": 4020,
      "Смо": 4021,
      "Ал": 4022,
      "ших": 4023,
      "обла": 4024,
      "лим": 4025,
      "итай": 4026,
      "ульта": 4027,
      "вли": 4028,
      "ститу": 4029,
      "визо": 4030,
      "000": 4031,
      "вместо": 4032,
      "кана": 4033,
      "заня": 4034,
      "тобой": 4035,
      "назад": 4036,
      "хвата": 4037,
      "уче": 4038,
      "удив": 4039,
      "Ли": 4040,
      "которая": 4041,
      "способ": 4042,
      "цион": 4043,
      "правильно": 4044,
      "СЕ": 4045,
      "бка": 4046,
      "бит": 4047,
      "Украины": 4048,
      "ляет": 4049,
      "президента": 4050,
      "егодня": 4051,
      "стол": 4052,
      "сон": 4053,
      "случа": 4054,
      "Сегодня": 4055,
      "каз": 4056,
      "своим": 4057,
      "прин": 4058,
      "нен": 4059,
      "говор": 4060,
      "нику": 4061,
      "лые": 4062,
      "элек": 4063,
      "рядом": 4064,
      "наконец": 4065,
      "бот": 4066,
      "бук": 4067,
      "пове": 4068,
      "лку": 4069,
      "лик": 4070,
      "мало": 4071,
      "ресто": 4072,
      "пят": 4073,
      "тит": 4074,
      "Мен": 4075,
      "Конечно": 4076,
      "графи": 4077,
      "потре": 4078,
      "друга": 4079,
      "бку": 4080,
      "запрет": 4081,
      "роди": 4082,
      "сосед": 4083,
      "собра": 4084,
      "дент": 4085,
      "рован": 4086,
      "воду": 4087,
      "оби": 4088,
      "Может": 4089,
      "Украине": 4090,
      "люблю": 4091,
      "скому": 4092,
      "одну": 4093,
      "зов": 4094,
      "бить": 4095,
      "спросил": 4096,
      "хочешь": 4097,
      "сибо": 4098,
      "высо": 4099,
      "паль": 4100,
      "радо": 4101,
      "поэтому": 4102,
      "ждения": 4103,
      "работы": 4104,
      "стри": 4105,
      "неё": 4106,
      "Кры": 4107,
      "цвет": 4108,
      "вста": 4109,
      "собой": 4110,
      "хозя": 4111,
      "быстро": 4112,
      "правда": 4113,
      "евро": 4114,
      "...\"": 4115,
      "пыт": 4116,
      "семь": 4117,
      "бур": 4118,
      "силь": 4119,
      "груп": 4120,
      "зако": 4121,
      "чной": 4122,
      "нови": 4123,
      "прямо": 4124,
      "чей": 4125,
      "хов": 4126,
      "дох": 4127,
      "нрав": 4128,
      "зави": 4129,
      "програм": 4130,
      "Гла": 4131,
      "блядь": 4132,
      "праз": 4133,
      "13": 4134,
      "идет": 4135,
      "сне": 4136,
      "моей": 4137,
      "медве": 4138,
      "гар": 4139,
      "вспо": 4140,
      "зовут": 4141,
      "Женщи": 4142,
      "Вдруг": 4143,
      "Где": 4144,
      "рекла": 4145,
      "пры": 4146,
      "твой": 4147,
      "Здравству": 4148,
      "результа": 4149,
      "стру": 4150,
      "кажется": 4151,
      "вшись": 4152,
      "Президен": 4153,
      "будешь": 4154,
      "шек": 4155,
      "гото": 4156,
      "ётся": 4157,
      "туалет": 4158,
      "заходит": 4159,
      "ад": 4160,
      "лог": 4161,
      "чём": 4162,
      "лиц": 4163,
      "либо": 4164,
      "тир": 4165,
      "умер": 4166,
      "мии": 4167,
      "сбор": 4168,
      "похо": 4169,
      "меньше": 4170,
      "ены": 4171,
      "чили": 4172,
      "Потом": 4173,
      "хле": 4174,
      "ДИ": 4175,
      "вместе": 4176,
      "подума": 4177,
      "дили": 4178,
      "мину": 4179,
      "улице": 4180,
      "сделал": 4181,
      "жив": 4182,
      "бю": 4183,
      "зву": 4184,
      "ному": 4185,
      "нете": 4186,
      "цер": 4187,
      "кот": 4188,
      "следующий": 4189,
      "бав": 4190,
      "ретий": 4191,
      "гло": 4192,
      "наде": 4193,
      "подру": 4194,
      "держи": 4195,
      "конец": 4196,
      "отец": 4197,
      "навер": 4198,
      "Петро": 4199,
      "тур": 4200,
      "гами": 4201,
      "чется": 4202,
      "?—": 4203,
      "уро": 4204,
      "фото": 4205,
      "образо": 4206,
      "щик": 4207,
      "компа": 4208,
      "возь": 4209,
      "свобо": 4210,
      "чные": 4211,
      "жене": 4212,
      "сим": 4213,
      "времен": 4214,
      "йн": 4215,
      "рем": 4216,
      "которых": 4217,
      "уа": 4218,
      "17": 4219,
      "лки": 4220,
      "раньше": 4221,
      "шим": 4222,
      "кции": 4223,
      "Владимиро": 4224,
      "повы": 4225,
      "руку": 4226,
      "!»": 4227,
      "Однажды": 4228,
      "дли": 4229,
      "дель": 4230,
      "рачи": 4231,
      "вин": 4232,
      "лон": 4233,
      "лично": 4234,
      "лицо": 4235,
      "решили": 4236,
      "Россию": 4237,
      "сюда": 4238,
      "верну": 4239,
      "телевизо": 4240,
      "пей": 4241,
      "ешься": 4242,
      "рию": 4243,
      "тами": 4244,
      "дем": 4245,
      "знако": 4246,
      "жку": 4247,
      "поста": 4248,
      "ителей": 4249,
      "жопу": 4250,
      "постоянно": 4251,
      "попу": 4252,
      "Давай": 4253,
      "Зе": 4254,
      "вече": 4255,
      "Два": 4256,
      "Штир": 4257,
      "исполь": 4258,
      "Вто": 4259,
      "спокой": 4260,
      "опа": 4261,
      "воро": 4262,
      "долларов": 4263,
      "смотрел": 4264,
      "сро": 4265,
      "дор": 4266,
      "воен": 4267,
      "езд": 4268,
      "пили": 4269,
      "Ха": 4270,
      "ственный": 4271,
      "мей": 4272,
      "секрет": 4273,
      "чная": 4274,
      "Россий": 4275,
      "зь": 4276,
      "тить": 4277,
      "нашей": 4278,
      "полити": 4279,
      "нике": 4280,
      "Сколько": 4281,
      "шком": 4282,
      "нан": 4283,
      "миллиар": 4284,
      "мец": 4285,
      "принима": 4286,
      "насе": 4287,
      "части": 4288,
      "лимпи": 4289,
      "лер": 4290,
      "ранцу": 4291,
      "самом": 4292,
      "ником": 4293,
      "оди": 4294,
      "нато": 4295,
      "ческий": 4296,
      "подня": 4297,
      "шай": 4298,
      "лам": 4299,
      "Надо": 4300,
      "самое": 4301,
      "стно": 4302,
      "спорт": 4303,
      "проду": 4304,
      "мужика": 4305,
      "автомоби": 4306,
      "рут": 4307,
      "25": 4308,
      "сма": 4309,
      "чтоб": 4310,
      "чится": 4311,
      "огром": 4312,
      "лой": 4313,
      "рует": 4314,
      "Москве": 4315,
      "лая": 4316,
      "будем": 4317,
      "рами": 4318,
      "дай": 4319,
      "жур": 4320,
      "ходя": 4321,
      "Моло": 4322,
      "ЛЯ": 4323,
      "хотя": 4324,
      "англи": 4325,
      "ствует": 4326,
      "четы": 4327,
      ").": 4328,
      "40": 4329,
      "вид": 4330,
      "Сто": 4331,
      "циаль": 4332,
      "Нава": 4333,
      "ou": 4334,
      "\"?": 4335,
      "РУ": 4336,
      "порт": 4337,
      "Заходит": 4338,
      "папа": 4339,
      "тил": 4340,
      "нице": 4341,
      "купить": 4342,
      "пала": 4343,
      "парень": 4344,
      "оши": 4345,
      "нения": 4346,
      "начал": 4347,
      "ап": 4348,
      "кажите": 4349,
      "гал": 4350,
      "времени": 4351,
      "льной": 4352,
      "гой": 4353,
      "най": 4354,
      "мах": 4355,
      "пару": 4356,
      "16": 4357,
      "мои": 4358,
      "большой": 4359,
      "вст": 4360,
      "заявил": 4361,
      "раба": 4362,
      "Ново": 4363,
      "спрашивают": 4364,
      "щие": 4365,
      "re": 4366,
      "шкой": 4367,
      "магазин": 4368,
      "щего": 4369,
      "шую": 4370,
      "дож": 4371,
      "Вас": 4372,
      "спать": 4373,
      "Ой": 4374,
      "немного": 4375,
      "Алек": 4376,
      "чения": 4377,
      "щих": 4378,
      "появи": 4379,
      "мое": 4380,
      "выходит": 4381,
      "месяц": 4382,
      "Сей": 4383,
      "спу": 4384,
      "читель": 4385,
      "руп": 4386,
      "уве": 4387,
      "еты": 4388,
      "Там": 4389,
      "БО": 4390,
      "лесу": 4391,
      "испол": 4392,
      "кури": 4393,
      "жки": 4394,
      "запи": 4395,
      "мной": 4396,
      "руд": 4397,
      "доволь": 4398,
      "бил": 4399,
      "ствие": 4400,
      "Интере": 4401,
      "бь": 4402,
      "вклю": 4403,
      "яйца": 4404,
      "чая": 4405,
      "взял": 4406,
      "тран": 4407,
      "улы": 4408,
      "минист": 4409,
      "май": 4410,
      "Зачем": 4411,
      "Пере": 4412,
      "этим": 4413,
      "стить": 4414,
      "Слы": 4415,
      "женщин": 4416,
      "мужа": 4417,
      "тые": 4418,
      "демо": 4419,
      "сва": 4420,
      "!..": 4421,
      "Меня": 4422,
      "внима": 4423,
      "хал": 4424,
      "коронави": 4425,
      "кричит": 4426,
      ".—": 4427,
      "радио": 4428,
      "пива": 4429,
      "ант": 4430,
      "Объ": 4431,
      "мых": 4432,
      "куп": 4433,
      "власти": 4434,
      "чение": 4435,
      "бума": 4436,
      "ТИ": 4437,
      "празд": 4438,
      "живот": 4439,
      "Сейчас": 4440,
      "сет": 4441,
      "сооб": 4442,
      "ссе": 4443,
      "сильно": 4444,
      "ственно": 4445,
      "тысяч": 4446,
      "именно": 4447,
      "состоя": 4448,
      "чают": 4449,
      "разве": 4450,
      "неделю": 4451,
      "оно": 4452,
      "бинович": 4453,
      "лок": 4454,
      "неф": 4455,
      "попроси": 4456,
      "ссор": 4457,
      "каждо": 4458,
      "лем": 4459,
      "сить": 4460,
      "цией": 4461,
      "связи": 4462,
      "Владимирович": 4463,
      "Рус": 4464,
      "места": 4465,
      "Какой": 4466,
      "генера": 4467,
      "полови": 4468,
      "стар": 4469,
      "нит": 4470,
      "реза": 4471,
      "роз": 4472,
      "дю": 4473,
      "щит": 4474,
      "Прав": 4475,
      "док": 4476,
      "шать": 4477,
      "дат": 4478,
      "жин": 4479,
      "парти": 4480,
      "Поли": 4481,
      "член": 4482,
      "дера": 4483,
      "делает": 4484,
      "стом": 4485,
      "которой": 4486,
      "биз": 4487,
      "нд": 4488,
      "ляр": 4489,
      "говорил": 4490,
      "потеря": 4491,
      "ид": 4492,
      "кти": 4493,
      "нули": 4494,
      "ям": 4495,
      "гри": 4496,
      "зай": 4497,
      "страш": 4498,
      "попро": 4499,
      "чо": 4500,
      "нев": 4501,
      "мена": 4502,
      "!\".": 4503,
      "Спа": 4504,
      "коли": 4505,
      "сят": 4506,
      "очеред": 4507,
      "клады": 4508,
      "машину": 4509,
      "должны": 4510,
      "ленно": 4511,
      "БЕ": 4512,
      "сове": 4513,
      "кух": 4514,
      "посте": 4515,
      "поле": 4516,
      "куль": 4517,
      "ситуа": 4518,
      "воды": 4519,
      "мов": 4520,
      "снима": 4521,
      "хочется": 4522,
      "устро": 4523,
      "ваш": 4524,
      "голосо": 4525,
      "является": 4526,
      "сра": 4527,
      "мальчик": 4528,
      "поро": 4529,
      "Мой": 4530,
      "лого": 4531,
      "дова": 4532,
      "онов": 4533,
      "опера": 4534,
      "никак": 4535,
      "гна": 4536,
      "сыпа": 4537,
      "Штирлиц": 4538,
      "вами": 4539,
      "боро": 4540,
      "коле": 4541,
      "товари": 4542,
      "зре": 4543,
      "шить": 4544,
      "класс": 4545,
      "ними": 4546,
      "можете": 4547,
      "Ло": 4548,
      "ством": 4549,
      "дыха": 4550,
      "Чер": 4551,
      "сел": 4552,
      "другу": 4553,
      "БА": 4554,
      "пет": 4555,
      "море": 4556,
      "теля": 4557,
      "бегает": 4558,
      "ВЫ": 4559,
      "вших": 4560,
      "тел": 4561,
      "аааа": 4562,
      "вокруг": 4563,
      "утром": 4564,
      "--------": 4565,
      "играть": 4566,
      "руко": 4567,
      "жену": 4568,
      "объясни": 4569,
      "Фе": 4570,
      "Вчера": 4571,
      "хватает": 4572,
      "шет": 4573,
      "которого": 4574,
      "телефон": 4575,
      "ПА": 4576,
      "производ": 4577,
      "называется": 4578,
      "чика": 4579,
      "мян": 4580,
      "Бог": 4581,
      "сексу": 4582,
      "СО": 4583,
      "опре": 4584,
      "проис": 4585,
      "работает": 4586,
      "ВИ": 4587,
      "изи": 4588,
      "анти": 4589,
      "жени": 4590,
      "███": 4591,
      "фамили": 4592,
      "тая": 4593,
      "хожу": 4594,
      "циона": 4595,
      "частли": 4596,
      "друзья": 4597,
      "стала": 4598,
      "Скажите": 4599,
      "вила": 4600,
      "le": 4601,
      "повто": 4602,
      "st": 4603,
      "бок": 4604,
      "недо": 4605,
      "купил": 4606,
      "хуя": 4607,
      "думаю": 4608,
      "???": 4609,
      "Сын": 4610,
      "гать": 4611,
      "ужа": 4612,
      "наших": 4613,
      "клу": 4614,
      "сука": 4615,
      "Новый": 4616,
      "мин": 4617,
      "каби": 4618,
      "мым": 4619,
      "Тот": 4620,
      "лья": 4621,
      "требу": 4622,
      "\"...": 4623,
      "треть": 4624,
      "шее": 4625,
      "сынок": 4626,
      "ЧЕ": 4627,
      "здоров": 4628,
      "должно": 4629,
      "Гер": 4630,
      "найти": 4631,
      "города": 4632,
      "нула": 4633,
      "клад": 4634,
      "чаются": 4635,
      "Идет": 4636,
      "лица": 4637,
      "четыре": 4638,
      "которое": 4639,
      "?!-": 4640,
      "музы": 4641,
      "женой": 4642,
      "щей": 4643,
      "иска": 4644,
      "═╝": 4645,
      "╚═": 4646,
      "вати": 4647,
      ")═╝": 4648,
      "часто": 4649,
      "жает": 4650,
      "ствия": 4651,
      "╚═(": 4652,
      "═╬": 4653,
      "╬═╬": 4654,
      "льное": 4655,
      "Доро": 4656,
      "шься": 4657,
      "███)═╝": 4658,
      "╚═(███)═╝": 4659,
      "ПЕ": 4660,
      "почти": 4661,
      "можешь": 4662,
      "Оба": 4663,
      "вода": 4664,
      "оооо": 4665,
      "ствительно": 4666,
      "90": 4667,
      "Ти": 4668,
      "ото": 4669,
      "помощ": 4670,
      "форма": 4671,
      "поса": 4672,
      "работе": 4673,
      "вакци": 4674,
      "шает": 4675,
      "алкого": 4676,
      "чёр": 4677,
      "сда": 4678,
      "чного": 4679,
      "лете": 4680,
      "гости": 4681,
      "выпол": 4682,
      "Говорят": 4683,
      "бри": 4684,
      "позво": 4685,
      "кино": 4686,
      "or": 4687,
      "енно": 4688,
      "ваешь": 4689,
      "Дорого": 4690,
      "граждан": 4691,
      "Гу": 4692,
      "щение": 4693,
      "ходил": 4694,
      "Жи": 4695,
      "нина": 4696,
      "дим": 4697,
      ".©": 4698,
      "бки": 4699,
      "ностью": 4700,
      "шин": 4701,
      "представ": 4702,
      "лоша": 4703,
      "буд": 4704,
      "третий": 4705,
      "еврей": 4706,
      "хотите": 4707,
      "кем": 4708,
      "понимаю": 4709,
      "мечта": 4710,
      "иск": 4711,
      "школе": 4712,
      "дости": 4713,
      "един": 4714,
      "чных": 4715,
      "йтесь": 4716,
      "секс": 4717,
      "at": 4718,
      "дания": 4719,
      "такого": 4720,
      "мимо": 4721,
      "усло": 4722,
      "нач": 4723,
      "Мар": 4724,
      "лых": 4725,
      "вский": 4726,
      "чился": 4727,
      "Интересно": 4728,
      "Зем": 4729,
      "Ча": 4730,
      "щения": 4731,
      "важа": 4732,
      "сказали": 4733,
      "отправ": 4734,
      "верх": 4735,
      "мене": 4736,
      "этих": 4737,
      "сэр": 4738,
      "уви": 4739,
      "ТЫ": 4740,
      "здоро": 4741,
      "льных": 4742,
      "Просто": 4743,
      "шля": 4744,
      "возра": 4745,
      "Луч": 4746,
      "настолько": 4747,
      "Бай": 4748,
      "сколь": 4749,
      "чески": 4750,
      "Привет": 4751,
      "Учитель": 4752,
      "чуть": 4753,
      "Дж": 4754,
      "Мак": 4755,
      "ПРО": 4756,
      "меди": 4757,
      "Оте": 4758,
      "горе": 4759,
      "гря": 4760,
      "Пока": 4761,
      "[←": 4762,
      "→]": 4763,
      "тера": 4764,
      "[←→]": 4765,
      "бен": 4766,
      "среди": 4767,
      "Можно": 4768,
      "80": 4769,
      "ина": 4770,
      "чок": 4771,
      "читать": 4772,
      "мужчины": 4773,
      "тин": 4774,
      "говорю": 4775,
      "выгля": 4776,
      "сор": 4777,
      "слышал": 4778,
      "тах": 4779,
      "Стра": 4780,
      "воло": 4781,
      "дале": 4782,
      "казывается": 4783,
      "думы": 4784,
      "вец": 4785,
      "чёт": 4786,
      "математи": 4787,
      "дный": 4788,
      "прият": 4789,
      "Украина": 4790,
      "День": 4791,
      "дней": 4792,
      "россия": 4793,
      "какую": 4794,
      "специ": 4795,
      "en": 4796,
      "переда": 4797,
      "китай": 4798,
      "дире": 4799,
      "падает": 4800,
      "БЫ": 4801,
      "11": 4802,
      "чкой": 4803,
      "подъ": 4804,
      "цов": 4805,
      "россиян": 4806,
      "идёт": 4807,
      "других": 4808,
      "ОО": 4809,
      "стати": 4810,
      "обратно": 4811,
      "ваше": 4812,
      "режи": 4813,
      "девушки": 4814,
      "руса": 4815,
      "дав": 4816,
      "компью": 4817,
      "новости": 4818,
      "кило": 4819,
      "норма": 4820,
      "твоя": 4821,
      "обычно": 4822,
      "22": 4823,
      "Дорогой": 4824,
      "лес": 4825,
      "мере": 4826,
      "вок": 4827,
      "рассказы": 4828,
      "дед": 4829,
      "Вер": 4830,
      "пору": 4831,
      "знаком": 4832,
      "платить": 4833,
      "зм": 4834,
      "водки": 4835,
      "благода": 4836,
      "пози": 4837,
      "Маль": 4838,
      "хотят": 4839,
      "грани": 4840,
      "выход": 4841,
      "станет": 4842,
      "кова": 4843,
      "Его": 4844,
      "поднима": 4845,
      "Петрович": 4846,
      "утра": 4847,
      "Вели": 4848,
      "33": 4849,
      "чие": 4850,
      "Первый": 4851,
      "ый": 4852,
      "запре": 4853,
      "францу": 4854,
      "60": 4855,
      "лка": 4856,
      "откуда": 4857,
      "дерев": 4858,
      "конце": 4859,
      "нравится": 4860,
      "ила": 4861,
      "СР": 4862,
      "фак": 4863,
      "новые": 4864,
      "провод": 4865,
      "проблемы": 4866,
      "постро": 4867,
      "сына": 4868,
      "отказа": 4869,
      "номер": 4870,
      "понятно": 4871,
      "пришел": 4872,
      "бай": 4873,
      "учитель": 4874,
      "анекдот": 4875,
      "совершен": 4876,
      "сначала": 4877,
      "носит": 4878,
      "нил": 4879,
      "дешь": 4880,
      "доктор": 4881,
      "дения": 4882,
      "Медведев": 4883,
      "Дру": 4884,
      "Дмит": 4885,
      "уров": 4886,
      "ГА": 4887,
      "пля": 4888,
      "тай": 4889,
      "бря": 4890,
      "ночью": 4891,
      "случае": 4892,
      "дете": 4893,
      "сотруд": 4894,
      "тура": 4895,
      "прекра": 4896,
      "ехали": 4897,
      "тё": 4898,
      "гон": 4899,
      "пригла": 4900,
      "ясь": 4901,
      "писать": 4902,
      "уста": 4903,
      "้้": 4904,
      "доме": 4905,
      "Дед": 4906,
      "рили": 4907,
      "Слушай": 4908,
      "выра": 4909,
      "изо": 4910,
      "демокра": 4911,
      "превра": 4912,
      "вечером": 4913,
      "голу": 4914,
      "вините": 4915,
      "пли": 4916,
      "ьте": 4917,
      "чали": 4918,
      "слишком": 4919,
      "давайте": 4920,
      "уто": 4921,
      "пиво": 4922,
      "циен": 4923,
      "Коро": 4924,
      "Мужчина": 4925,
      "купи": 4926,
      "***": 4927,
      "Здравствуйте": 4928,
      "Ска": 4929,
      "ваши": 4930,
      "скажи": 4931,
      "траха": 4932,
      "гоня": 4933,
      "Госпо": 4934,
      "пошел": 4935,
      "СССР": 4936,
      "матери": 4937,
      "судь": 4938,
      "счастли": 4939,
      "зом": 4940,
      "лежит": 4941,
      "провер": 4942,
      "горя": 4943,
      "тели": 4944,
      "другому": 4945,
      "молодой": 4946,
      "Сту": 4947,
      "ана": 4948,
      "игры": 4949,
      "зло": 4950,
      "след": 4951,
      "российских": 4952,
      "дже": 4953,
      "ющим": 4954,
      "били": 4955,
      "дороги": 4956,
      "комму": 4957,
      "мыс": 4958,
      "Женщина": 4959,
      "24": 4960,
      "льная": 4961,
      "разговари": 4962,
      "тора": 4963,
      "космо": 4964,
      "джет": 4965,
      "волю": 4966,
      "ГИ": 4967,
      "рито": 4968,
      "ческой": 4969,
      "навли": 4970,
      "будете": 4971,
      "показы": 4972,
      "кет": 4973,
      "посла": 4974,
      "плы": 4975,
      "обнару": 4976,
      "карто": 4977,
      "щую": 4978,
      "рец": 4979,
      "страна": 4980,
      "казывает": 4981,
      "дцать": 4982,
      "возду": 4983,
      "ститут": 4984,
      "руют": 4985,
      "пин": 4986,
      "утро": 4987,
      "фильм": 4988,
      "СМИ": 4989,
      "итесь": 4990,
      "ющего": 4991,
      "увели": 4992,
      "понять": 4993,
      "придума": 4994,
      "жие": 4995,
      "действительно": 4996,
      "ожида": 4997,
      "ar": 4998,
      "шил": 4999,
      "пуск": 5000,
      "имя": 5001,
      "какое": 5002,
      "уго": 5003,
      "надца": 5004,
      "посту": 5005,
      "неве": 5006,
      "вшие": 5007,
      "ката": 5008,
      "рых": 5009,
      "многи": 5010,
      "выми": 5011,
      "бов": 5012,
      "лить": 5013,
      "езжает": 5014,
      "рал": 5015,
      "чле": 5016,
      "Глав": 5017,
      "царь": 5018,
      "ева": 5019,
      "кораб": 5020,
      "редь": 5021,
      "вича": 5022,
      "случилось": 5023,
      "мал": 5024,
      "диа": 5025,
      "Ша": 5026,
      "Ничего": 5027,
      "кси": 5028,
      "бывает": 5029,
      "другие": 5030,
      "!!!!": 5031,
      "ческого": 5032,
      "Три": 5033,
      "служ": 5034,
      "просить": 5035,
      "вижу": 5036,
      "борь": 5037,
      "ций": 5038,
      "просит": 5039,
      "Герма": 5040,
      "Васили": 5041,
      "момент": 5042,
      "дям": 5043,
      "21": 5044,
      "кос": 5045,
      "зато": 5046,
      "чувство": 5047,
      "упа": 5048,
      "Воз": 5049,
      "Ведь": 5050,
      "прово": 5051,
      "деду": 5052,
      "голос": 5053,
      "Ком": 5054,
      "Спасибо": 5055,
      "200": 5056,
      "вшего": 5057,
      "щее": 5058,
      "Хочу": 5059,
      "Фи": 5060,
      "МУ": 5061,
      "мист": 5062,
      "тяже": 5063,
      "кредит": 5064,
      "Подходит": 5065,
      "новую": 5066,
      "Гор": 5067,
      "каче": 5068,
      "пусть": 5069,
      "свое": 5070,
      "Парень": 5071,
      "is": 5072,
      "Объявление": 5073,
      "ек": 5074,
      "брит": 5075,
      "голов": 5076,
      "Рабинович": 5077,
      "органи": 5078,
      "фри": 5079,
      "бое": 5080,
      "студен": 5081,
      "министра": 5082,
      "нке": 5083,
      "самая": 5084,
      "кат": 5085,
      "стите": 5086,
      "цены": 5087,
      "достаточно": 5088,
      "Без": 5089,
      "вались": 5090,
      "боя": 5091,
      "ладно": 5092,
      "дая": 5093,
      "знать": 5094,
      "зор": 5095,
      "дон": 5096,
      "двор": 5097,
      "получил": 5098,
      "мужики": 5099,
      "увидел": 5100,
      "необ": 5101,
      "дала": 5102,
      "видно": 5103,
      "сила": 5104,
      "физи": 5105,
      "хода": 5106,
      "беспо": 5107,
      "взять": 5108,
      "использо": 5109,
      "хре": 5110,
      "шит": 5111,
      "мости": 5112,
      "пель": 5113,
      "часов": 5114,
      "нашего": 5115,
      "например": 5116,
      "офици": 5117,
      "назна": 5118,
      "электро": 5119,
      "Зелен": 5120,
      "бре": 5121,
      "пропа": 5122,
      "зал": 5123,
      "выпи": 5124,
      "современ": 5125,
      "годы": 5126,
      "кин": 5127,
      "старый": 5128,
      "корруп": 5129,
      "мл": 5130,
      "возму": 5131,
      "брат": 5132,
      "патри": 5133,
      "тых": 5134,
      "любой": 5135,
      "десять": 5136,
      "знают": 5137,
      "никам": 5138,
      "СЯ": 5139,
      "иску": 5140,
      "Рас": 5141,
      "ой": 5142,
      "управ": 5143,
      "спер": 5144,
      "хло": 5145,
      "няя": 5146,
      "обязательно": 5147,
      "обез": 5148,
      "телей": 5149,
      "бак": 5150,
      "лье": 5151,
      "думаешь": 5152,
      "нюю": 5153,
      "осо": 5154,
      "голове": 5155,
      "образ": 5156,
      "говно": 5157,
      "руковод": 5158,
      "хом": 5159,
      "Отец": 5160,
      "дение": 5161,
      "доказа": 5162,
      "менты": 5163,
      "свадь": 5164,
      "скажите": 5165,
      "читал": 5166,
      "наверное": 5167,
      "санкции": 5168,
      "своему": 5169,
      "гер": 5170,
      "реги": 5171,
      "Очень": 5172,
      "строй": 5173,
      "любит": 5174,
      "ссы": 5175,
      "счасть": 5176,
      "),": 5177,
      "уй": 5178,
      "всей": 5179,
      "скор": 5180,
      "скре": 5181,
      "Сле": 5182,
      "ровал": 5183,
      "тие": 5184,
      "оп": 5185,
      "бесе": 5186,
      "нём": 5187,
      "Поэтому": 5188,
      "кроме": 5189,
      "госпо": 5190,
      "кле": 5191,
      "дии": 5192,
      "звонит": 5193,
      "защит": 5194,
      "шлось": 5195,
      "кофе": 5196,
      "англий": 5197,
      "жай": 5198,
      "цем": 5199,
      "ворачи": 5200,
      "русские": 5201,
      "КУ": 5202,
      "зан": 5203,
      "созда": 5204,
      "сих": 5205,
      "23": 5206,
      "Рже": 5207,
      "рее": 5208,
      "секса": 5209,
      "Абра": 5210,
      "чную": 5211,
      "знал": 5212,
      "ехать": 5213,
      "ЖЕ": 5214,
      "разре": 5215,
      "чко": 5216,
      "типа": 5217,
      "твою": 5218,
      "Трамп": 5219,
      "\"!": 5220,
      "понимаешь": 5221,
      "Президент": 5222,
      "ктора": 5223,
      "Кар": 5224,
      "Москвы": 5225,
      "лад": 5226,
      "берет": 5227,
      "Поро": 5228,
      "пру": 5229,
      "шок": 5230,
      "стороны": 5231,
      "мою": 5232,
      "сига": 5233,
      "ляю": 5234,
      "аб": 5235,
      "рождения": 5236,
      "прошло": 5237,
      "етесь": 5238,
      "самого": 5239,
      "террито": 5240,
      "телефо": 5241,
      "es": 5242,
      "хуже": 5243,
      "Крем": 5244,
      "СИ": 5245,
      "тихо": 5246,
      "Даже": 5247,
      "слов": 5248,
      "тря": 5249,
      "сум": 5250,
      "брал": 5251,
      "предлага": 5252,
      "согласи": 5253,
      "вспомни": 5254,
      "Второй": 5255,
      "метро": 5256,
      "автобу": 5257,
      "желание": 5258,
      "Гру": 5259,
      "особ": 5260,
      "мужу": 5261,
      "жка": 5262,
      "учё": 5263,
      "рубля": 5264,
      "Бело": 5265,
      "фона": 5266,
      "название": 5267,
      "важае": 5268,
      "немец": 5269,
      "ВСЕ": 5270,
      "СЬ": 5271,
      "йся": 5272,
      "стю": 5273,
      "ффе": 5274,
      "пошли": 5275,
      "питан": 5276,
      "метров": 5277,
      "ееееееееееееееее": 5278,
      "виа": 5279,
      "Запа": 5280,
      "вей": 5281,
      "сообще": 5282,
      "нарко": 5283,
      "безо": 5284,
      "чий": 5285,
      "рабаты": 5286,
      "70": 5287,
      "рон": 5288,
      "читы": 5289,
      "смея": 5290,
      "кал": 5291,
      "Петь": 5292,
      "ат": 5293,
      "рые": 5294,
      "al": 5295,
      "ясни": 5296,
      "также": 5297,
      "ёте": 5298,
      "канец": 5299,
      "суд": 5300,
      "легко": 5301,
      "нка": 5302,
      "учены": 5303,
      "взгля": 5304,
      "гада": 5305,
      "бюджет": 5306,
      "Какая": 5307,
      "мость": 5308,
      "тили": 5309,
      "получается": 5310,
      "ждать": 5311,
      "моего": 5312,
      "выбира": 5313,
      "свер": 5314,
      "ёз": 5315,
      "гос": 5316,
      "Фран": 5317,
      "прекрас": 5318,
      "Иван": 5319,
      "Лука": 5320,
      "дочь": 5321,
      "гно": 5322,
      "собствен": 5323,
      "становится": 5324,
      "могли": 5325,
      "самые": 5326,
      "национа": 5327,
      "проте": 5328,
      "мона": 5329,
      "Раньше": 5330,
      "тую": 5331,
      "таких": 5332,
      "Моя": 5333,
      "написано": 5334,
      "нили": 5335,
      "кает": 5336,
      "быстре": 5337,
      "ур": 5338,
      "прем": 5339,
      "нется": 5340,
      "начали": 5341,
      "Бар": 5342,
      "стакан": 5343,
      "одном": 5344,
      "дится": 5345,
      "своими": 5346,
      "общем": 5347,
      "тей": 5348,
      "нужен": 5349,
      "твои": 5350,
      "it": 5351,
      "ьер": 5352,
      "лай": 5353,
      "двое": 5354,
      "ждый": 5355,
      "капита": 5356,
      "седа": 5357,
      "секу": 5358,
      "Алло": 5359,
      "стен": 5360,
      "карти": 5361,
      "нового": 5362,
      "професси": 5363,
      "замуж": 5364,
      "НУ": 5365,
      "дка": 5366,
      "нести": 5367,
      "емся": 5368,
      "даль": 5369,
      "бед": 5370,
      "чувству": 5371,
      "рим": 5372,
      "привы": 5373,
      "утвер": 5374,
      "случайно": 5375,
      "смотрите": 5376,
      "Порошенко": 5377,
      "вен": 5378,
      "публи": 5379,
      "молча": 5380,
      "тки": 5381,
      "мужчин": 5382,
      "совершенно": 5383,
      "туры": 5384,
      "менять": 5385,
      "супер": 5386,
      "лым": 5387,
      "другого": 5388,
      "Крым": 5389,
      "Бер": 5390,
      "лежа": 5391,
      "тюрь": 5392,
      "ческие": 5393,
      "пенсион": 5394,
      "холоди": 5395,
      "добро": 5396,
      "очередь": 5397,
      "своё": 5398,
      "окру": 5399,
      "Совет": 5400,
      "Челове": 5401,
      "ссажи": 5402,
      "страи": 5403,
      "Иванов": 5404,
      "ХО": 5405,
      "окон": 5406,
      "тали": 5407,
      "дик": 5408,
      "Каждый": 5409,
      "мера": 5410,
      "делают": 5411,
      "Дорогая": 5412,
      "охот": 5413,
      "вышел": 5414,
      "проти": 5415,
      "правительство": 5416,
      "ПИ": 5417,
      "едет": 5418,
      "мана": 5419,
      "вес": 5420,
      "Никола": 5421,
      "президентом": 5422,
      "заве": 5423,
      "выборы": 5424,
      "вкус": 5425,
      "гент": 5426,
      "обсу": 5427,
      "рд": 5428,
      "первого": 5429,
      "миллионов": 5430,
      "собака": 5431,
      "дки": 5432,
      "комнату": 5433,
      "руках": 5434,
      "меру": 5435,
      "фици": 5436,
      "вало": 5437,
      "оты": 5438,
      "помина": 5439,
      "какого": 5440,
      "гах": 5441,
      "магазине": 5442,
      "Алексан": 5443,
      "бол": 5444,
      "кля": 5445,
      "счет": 5446,
      "дила": 5447,
      "Интер": 5448,
      "мию": 5449,
      "городе": 5450,
      "the": 5451,
      "бин": 5452,
      "прия": 5453,
      "тым": 5454,
      "раздо": 5455,
      "права": 5456,
      "ЧИ": 5457,
      "пp": 5458,
      "возвращается": 5459,
      "ck": 5460,
      "представля": 5461,
      "должна": 5462,
      "еду": 5463,
      "ума": 5464,
      "выше": 5465,
      "мета": 5466,
      "скими": 5467,
      "Путину": 5468,
      "получи": 5469,
      "хит": 5470,
      "кате": 5471,
      "проце": 5472,
      "нять": 5473,
      "ябло": 5474,
      "первые": 5475,
      "будто": 5476,
      "Крас": 5477,
      "БУ": 5478,
      "Миха": 5479,
      "имеет": 5480,
      "язык": 5481,
      "чным": 5482,
      "реально": 5483,
      "сидят": 5484,
      "вроде": 5485,
      "нные": 5486,
      "чемпи": 5487,
      "встрет": 5488,
      "нета": 5489,
      "сист": 5490,
      "еб": 5491,
      "звез": 5492,
      "гают": 5493,
      "идут": 5494,
      "останов": 5495,
      "лев": 5496,
      "сама": 5497,
      "Вопрос": 5498,
      "банк": 5499,
      "Дума": 5500,
      "ОТ": 5501,
      "зага": 5502,
      "окно": 5503,
      "колба": 5504,
      "штра": 5505,
      "броса": 5506,
      "нечего": 5507,
      "давать": 5508,
      "жей": 5509,
      "щает": 5510,
      "креп": 5511,
      "машина": 5512,
      "Оста": 5513,
      "?»": 5514,
      "Дмитрий": 5515,
      "Или": 5516,
      "СА": 5517,
      "Люди": 5518,
      "вка": 5519,
      "коль": 5520,
      "дывает": 5521,
      "корм": 5522,
      "моро": 5523,
      "Давайте": 5524,
      "Знаете": 5525,
      "машины": 5526,
      "раи": 5527,
      "таким": 5528,
      "ЖИ": 5529,
      "участ": 5530,
      "ХА": 5531,
      "последний": 5532,
      "обезья": 5533,
      "рос": 5534,
      "хотели": 5535,
      "количество": 5536,
      "Изя": 5537,
      "нашли": 5538,
      "сою": 5539,
      "русского": 5540,
      "45": 5541,
      "СТА": 5542,
      "уверен": 5543,
      "Встре": 5544,
      "осталось": 5545,
      "мс": 5546,
      "шах": 5547,
      "интересно": 5548,
      "тина": 5549,
      "тяги": 5550,
      "рки": 5551,
      "серь": 5552,
      "изви": 5553,
      "делаешь": 5554,
      "истории": 5555,
      "писал": 5556,
      "Мальчик": 5557,
      "бота": 5558,
      "встречу": 5559,
      "лина": 5560,
      "вещи": 5561,
      "причи": 5562,
      "предложил": 5563,
      "площа": 5564,
      "Куда": 5565,
      "спор": 5566,
      "лимпиа": 5567,
      "жь": 5568,
      "ночи": 5569,
      "теа": 5570,
      "оли": 5571,
      "гам": 5572,
      "дево": 5573,
      "ай": 5574,
      "твер": 5575,
      "вор": 5576,
      "которую": 5577,
      "очереди": 5578,
      "ЧТО": 5579,
      "шите": 5580,
      "Извините": 5581,
      "необходи": 5582,
      "лот": 5583,
      "зерка": 5584,
      "зарплату": 5585,
      "кров": 5586,
      "льным": 5587,
      "преду": 5588,
      "народа": 5589,
      "посмотреть": 5590,
      "однажды": 5591,
      "Поня": 5592,
      "людям": 5593,
      "онер": 5594,
      "ус": 5595,
      "эт": 5596,
      "виду": 5597,
      "журнали": 5598,
      "нки": 5599,
      "ляется": 5600,
      "живут": 5601,
      "строе": 5602,
      "колле": 5603,
      "произо": 5604,
      "лению": 5605,
      "няет": 5606,
      "услови": 5607,
      ":—": 5608,
      "поме": 5609,
      "срочно": 5610,
      "БЛЯ": 5611,
      "Пой": 5612,
      "спокойно": 5613,
      "Хот": 5614,
      "ваша": 5615,
      "девочка": 5616,
      "глаз": 5617,
      "смерти": 5618,
      "благо": 5619,
      "жё": 5620,
      "нение": 5621,
      "важ": 5622,
      "?..": 5623,
      "открывает": 5624,
      "отношения": 5625,
      "др": 5626,
      "…-": 5627,
      "вел": 5628,
      "сах": 5629,
      "пидо": 5630,
      "полицей": 5631,
      "хлеб": 5632,
      "обу": 5633,
      "смотрю": 5634,
      "другом": 5635,
      "команди": 5636,
      "называют": 5637,
      "рому": 5638,
      "зации": 5639,
      "канди": 5640,
      "продав": 5641,
      "็็": 5642,
      "скажу": 5643,
      "поряд": 5644,
      "вае": 5645,
      "Иди": 5646,
      "зон": 5647,
      "Петька": 5648,
      "това": 5649,
      "вон": 5650,
      "интерес": 5651,
      "попросил": 5652,
      "РЫ": 5653,
      "пусты": 5654,
      "временно": 5655,
      "эро": 5656,
      "печа": 5657,
      "проблема": 5658,
      "видели": 5659,
      "Смот": 5660,
      "Василий": 5661,
      "пришёл": 5662,
      "фир": 5663,
      "удоб": 5664,
      "фер": 5665,
      "ито": 5666,
      "процен": 5667,
      "врач": 5668,
      "населения": 5669,
      "круп": 5670,
      "новой": 5671,
      "отсут": 5672,
      "главное": 5673,
      "ЦА": 5674,
      "щук": 5675,
      "ремон": 5676,
      "Вра": 5677,
      "щим": 5678,
      "нету": 5679,
      "измени": 5680,
      "цами": 5681,
      "ческих": 5682,
      "Наконец": 5683,
      "Мер": 5684,
      "эффе": 5685,
      "штаны": 5686,
      "безопа": 5687,
      "мую": 5688,
      "лил": 5689,
      "вобо": 5690,
      "мия": 5691,
      "слав": 5692,
      "Значит": 5693,
      "новая": 5694,
      ",-": 5695,
      "пациен": 5696,
      "вился": 5697,
      "чики": 5698,
      "медленно": 5699,
      "зма": 5700,
      "сай": 5701,
      "вернулся": 5702,
      "женщину": 5703,
      "цам": 5704,
      "льника": 5705,
      "честь": 5706,
      "логии": 5707,
      "охра": 5708,
      "новых": 5709,
      "систе": 5710,
      "анта": 5711,
      "любят": 5712,
      "праши": 5713,
      "попал": 5714,
      "иностран": 5715,
      "принци": 5716,
      "ДУ": 5717,
      "джи": 5718,
      "тически": 5719,
      "приз": 5720,
      "считать": 5721,
      "рка": 5722,
      "бело": 5723,
      "тури": 5724,
      "находит": 5725,
      "Какие": 5726,
      "рели": 5727,
      "Украину": 5728,
      "играл": 5729,
      "рестора": 5730,
      "зале": 5731,
      "вечер": 5732,
      "жила": 5733,
      "узнать": 5734,
      "сона": 5735,
      "езда": 5736,
      "сило": 5737,
      "шем": 5738,
      "бара": 5739,
      "сказ": 5740,
      "курс": 5741,
      "Полищук": 5742,
      "справ": 5743,
      "Лучше": 5744,
      "нормально": 5745,
      "француз": 5746,
      "тельный": 5747,
      "Сол": 5748,
      "финан": 5749,
      "Ржевский": 5750,
      "пах": 5751,
      "Сидят": 5752,
      "ing": 5753,
      "съе": 5754,
      "вопросы": 5755,
      "разде": 5756,
      "пишет": 5757,
      "Профе": 5758,
      "жан": 5759,
      "написал": 5760,
      "тии": 5761,
      "удалось": 5762,
      "искус": 5763,
      "петь": 5764,
      "ненави": 5765,
      "изоб": 5766,
      "русских": 5767,
      "рат": 5768,
      "гораздо": 5769,
      "РАЗ": 5770,
      "do": 5771,
      "ХУ": 5772,
      "котором": 5773,
      "забыл": 5774,
      "школу": 5775,
      "ce": 5776,
      "посе": 5777,
      "сия": 5778,
      "гай": 5779,
      "ляют": 5780,
      "человеку": 5781,
      "происходит": 5782,
      "Чего": 5783,
      "дар": 5784,
      "мисси": 5785,
      "смог": 5786,
      "Голо": 5787,
      "):": 5788,
      "такую": 5789,
      "девушку": 5790,
      "щаться": 5791,
      "Ино": 5792,
      "Мин": 5793,
      "ун": 5794,
      "наблю": 5795,
      "нист": 5796,
      "чест": 5797,
      "пошёл": 5798,
      "жало": 5799,
      "квартиру": 5800,
      "фотографи": 5801,
      "дипло": 5802,
      "Тебе": 5803,
      "брали": 5804,
      "МЫ": 5805,
      "щем": 5806,
      "сигарет": 5807,
      "ями": 5808,
      "ферен": 5809,
      "бизнес": 5810,
      "лью": 5811,
      "выз": 5812,
      "отца": 5813,
      "четвер": 5814,
      "шан": 5815,
      "ющей": 5816,
      "пку": 5817,
      "заклю": 5818,
      "конф": 5819,
      "план": 5820,
      "солют": 5821,
      "¶¶": 5822,
      "тился": 5823,
      "пам": 5824,
      "дорогу": 5825,
      "дую": 5826,
      "словами": 5827,
      "Эх": 5828,
      "лены": 5829,
      "иметь": 5830,
      "блон": 5831,
      "пользо": 5832,
      "помню": 5833,
      "ощу": 5834,
      "тар": 5835,
      "цеп": 5836,
      "геро": 5837,
      "страну": 5838,
      "Студент": 5839,
      "кать": 5840,
      "политиче": 5841,
      "семье": 5842,
      "уво": 5843,
      "детстве": 5844,
      "дется": 5845,
      "машине": 5846,
      "казал": 5847,
      "хватит": 5848,
      "ждение": 5849,
      "Дети": 5850,
      "мого": 5851,
      "винова": 5852,
      "ЛЮ": 5853,
      "оборот": 5854,
      "твоей": 5855,
      "Бля": 5856,
      "de": 5857,
      "иногда": 5858,
      "СУ": 5859,
      "никого": 5860,
      "первой": 5861,
      "Еще": 5862,
      "куро": 5863,
      "кер": 5864,
      "дные": 5865,
      "баба": 5866,
      "взро": 5867,
      "прош": 5868,
      "получить": 5869,
      "Ленин": 5870,
      "двери": 5871,
      "девушкой": 5872,
      "0000": 5873,
      "Петров": 5874,
      "кция": 5875,
      "эн": 5876,
      "проститут": 5877,
      "пери": 5878,
      "читает": 5879,
      "ребен": 5880,
      "сборной": 5881,
      "говорили": 5882,
      "кота": 5883,
      "пришлось": 5884,
      "останавли": 5885,
      "нужны": 5886,
      "Мон": 5887,
      "длин": 5888,
      "вашей": 5889,
      "Зво": 5890,
      "Опять": 5891,
      "даёт": 5892,
      "руками": 5893,
      "Джон": 5894,
      "Дол": 5895,
      "медведь": 5896,
      "пассажи": 5897,
      "печат": 5898,
      "шам": 5899,
      "решила": 5900,
      "известно": 5901,
      "товарищ": 5902,
      "Доб": 5903,
      "мали": 5904,
      "Пол": 5905,
      "лением": 5906,
      "арь": 5907,
      "полне": 5908,
      "каждого": 5909,
      "раду": 5910,
      "шина": 5911,
      "информа": 5912,
      "голова": 5913,
      "ющее": 5914,
      "маленький": 5915,
      "нят": 5916,
      "ственной": 5917,
      "Конститу": 5918,
      "Тур": 5919,
      "быстрее": 5920,
      "ровали": 5921,
      "шед": 5922,
      "Май": 5923,
      "серд": 5924,
      "компании": 5925,
      "кно": 5926,
      "платно": 5927,
      "клиен": 5928,
      "хая": 5929,
      "сторону": 5930,
      "чаю": 5931,
      "НЫЙ": 5932,
      "ступает": 5933,
      "власть": 5934,
      "as": 5935,
      "Би": 5936,
      "Зо": 5937,
      "хер": 5938,
      "беско": 5939,
      "смотрят": 5940,
      "пришли": 5941,
      "pа": 5942,
      "медици": 5943,
      "мно": 5944,
      "дове": 5945,
      "добав": 5946,
      "пришла": 5947,
      "шему": 5948,
      "новость": 5949,
      "арбу": 5950,
      "тный": 5951,
      "упал": 5952,
      "мены": 5953,
      "головой": 5954,
      "техно": 5955,
      "жут": 5956,
      "пки": 5957,
      "лиф": 5958,
      "дку": 5959,
      "зади": 5960,
      "фиг": 5961,
      "35": 5962,
      "посмотрел": 5963,
      "нешь": 5964,
      "Англи": 5965,
      "дурак": 5966,
      "одни": 5967,
      "________": 5968,
      "восто": 5969,
      "ужели": 5970,
      "Обама": 5971,
      "исклю": 5972,
      "ческая": 5973,
      "идти": 5974,
      "интернет": 5975,
      "чились": 5976,
      "большин": 5977,
      "Ответ": 5978,
      "области": 5979,
      "хозяй": 5980,
      "уходит": 5981,
      "Выходит": 5982,
      "деше": 5983,
      "терпе": 5984,
      "Ага": 5985,
      "БИ": 5986,
      "Эй": 5987,
      "близ": 5988,
      "носить": 5989,
      "выборах": 5990,
      "электри": 5991,
      "новостей": 5992,
      "солдат": 5993,
      "постели": 5994,
      "презер": 5995,
      "сделали": 5996,
      "Лукашенко": 5997,
      "недели": 5998,
      "преступ": 5999,
      "Мужи": 6000,
      "митин": 6001,
      "Русский": 6002,
      "ори": 6003,
      "димо": 6004,
      "пиздец": 6005,
      "щать": 6006,
      "половину": 6007,
      "!?": 6008,
      "весе": 6009,
      "развит": 6010,
      "зависи": 6011,
      "ваем": 6012,
      "заку": 6013,
      "родители": 6014,
      "IIII": 6015,
      "ищ": 6016,
      "разда": 6017,
      "переиме": 6018,
      "Ах": 6019,
      "ПРИ": 6020,
      "ходите": 6021,
      "ёх": 6022,
      "позвони": 6023,
      "пожи": 6024,
      "опреде": 6025,
      "лиш": 6026,
      "руга": 6027,
      "жают": 6028,
      "наша": 6029,
      "65": 6030,
      "кори": 6031,
      "вов": 6032,
      "стои": 6033,
      "корот": 6034,
      "летает": 6035,
      "футболи": 6036,
      "Правда": 6037,
      "Вол": 6038,
      "нормаль": 6039,
      "продук": 6040,
      "жный": 6041,
      "озна": 6042,
      "льную": 6043,
      "ваете": 6044,
      "Профессор": 6045,
      "ходе": 6046,
      "пост": 6047,
      "рисо": 6048,
      "студент": 6049,
      "дорого": 6050,
      "Ладно": 6051,
      "веро": 6052,
      "дия": 6053,
      "Новости": 6054,
      "нa": 6055,
      "чное": 6056,
      "насту": 6057,
      "жали": 6058,
      "Уже": 6059,
      "тик": 6060,
      "тим": 6061,
      "чительно": 6062,
      "постав": 6063,
      "поля": 6064,
      "ждают": 6065,
      "жопа": 6066,
      "зам": 6067,
      "дороге": 6068,
      "Сначала": 6069,
      "прое": 6070,
      "баб": 6071,
      "льт": 6072,
      "выбор": 6073,
      "рять": 6074,
      "бабушка": 6075,
      "вина": 6076,
      "лети": 6077,
      "фило": 6078,
      "езде": 6079,
      "заказывает": 6080,
      "сери": 6081,
      "обви": 6082,
      "кими": 6083,
      "лую": 6084,
      "гряз": 6085,
      "дём": 6086,
      "недавно": 6087,
      "сидел": 6088,
      "конца": 6089,
      "армии": 6090,
      "коз": 6091,
      "дес": 6092,
      "мысли": 6093,
      "такси": 6094,
      "доку": 6095,
      "мора": 6096,
      "парня": 6097,
      "отличается": 6098,
      "Аль": 6099,
      "Брит": 6100,
      "опла": 6101,
      "нало": 6102,
      "времена": 6103,
      "красивая": 6104,
      "Человек": 6105,
      "банка": 6106,
      "ету": 6107,
      "чаще": 6108,
      "Ната": 6109,
      "начинают": 6110,
      "другим": 6111,
      "одино": 6112,
      "дум": 6113,
      "гут": 6114,
      "пустил": 6115,
      "удоволь": 6116,
      "СТО": 6117,
      "Молодой": 6118,
      "игру": 6119,
      "поезд": 6120,
      "телевизор": 6121,
      "Байден": 6122,
      "следо": 6123,
      "пенсионе": 6124,
      "бутылку": 6125,
      "установ": 6126,
      "ныне": 6127,
      "думаете": 6128,
      "анали": 6129,
      "оскор": 6130,
      "каких": 6131,
      "ll": 6132,
      "Им": 6133,
      "напа": 6134,
      "кафе": 6135,
      "никами": 6136,
      "земли": 6137,
      "ам": 6138,
      "рори": 6139,
      "шили": 6140,
      "делал": 6141,
      "спорта": 6142,
      "порно": 6143,
      "проблем": 6144,
      "обещал": 6145,
      "дея": 6146,
      "бесплатно": 6147,
      "нефть": 6148,
      "he": 6149,
      "Прави": 6150,
      "кну": 6151,
      "полез": 6152,
      "водит": 6153,
      "противо": 6154,
      "запла": 6155,
      "которым": 6156,
      "фы": 6157,
      "семей": 6158,
      "работал": 6159,
      "Свет": 6160,
      "шают": 6161,
      "бойник": 6162,
      "Идёт": 6163,
      "исти": 6164,
      "уу": 6165,
      "ног": 6166,
      "зах": 6167,
      "стая": 6168,
      "отдыха": 6169,
      "одним": 6170,
      "Боль": 6171,
      "ебать": 6172,
      "направ": 6173,
      "чиновников": 6174,
      "лле": 6175,
      "эй": 6176,
      "канчи": 6177,
      "надпись": 6178,
      "край": 6179,
      "воде": 6180,
      "пути": 6181,
      "подарок": 6182,
      "узнал": 6183,
      "распо": 6184,
      "шал": 6185,
      "российской": 6186,
      "мато": 6187,
      "чим": 6188,
      "дорогой": 6189,
      "зии": 6190,
      "санкци": 6191,
      "делить": 6192,
      "держать": 6193,
      "рассказывает": 6194,
      "психи": 6195,
      "новогод": 6196,
      "опыт": 6197,
      "мену": 6198,
      "Нор": 6199,
      "ити": 6200,
      "чества": 6201,
      "соса": 6202,
      "десят": 6203,
      "нужна": 6204,
      "видео": 6205,
      "Сынок": 6206,
      "Ему": 6207,
      "Сло": 6208,
      "спасибо": 6209,
      "Израи": 6210,
      "очередной": 6211,
      "парик": 6212,
      "двига": 6213,
      "коронавируса": 6214,
      "сидеть": 6215,
      "Врач": 6216,
      "75": 6217,
      "Еди": 6218,
      "ани": 6219,
      "эко": 6220,
      "рака": 6221,
      "разница": 6222,
      "водку": 6223,
      "друзей": 6224,
      "улыба": 6225,
      "света": 6226,
      "энер": 6227,
      "срав": 6228,
      "ять": 6229,
      "посмотри": 6230,
      "om": 6231,
      "дева": 6232,
      "собы": 6233,
      "Марь": 6234,
      "европей": 6235,
      "билет": 6236,
      "хороший": 6237,
      "любви": 6238,
      "следует": 6239,
      "Судя": 6240,
      "футболу": 6241,
      "ТВ": 6242,
      "сна": 6243,
      "пустить": 6244,
      "НАТО": 6245,
      "российский": 6246,
      "АААААААА": 6247,
      "RR": 6248,
      "дни": 6249,
      "сл": 6250,
      "убий": 6251,
      "ебу": 6252,
      "умира": 6253,
      "ждает": 6254,
      "кня": 6255,
      "рис": 6256,
      "стоят": 6257,
      "Джо": 6258,
      "ЧА": 6259,
      "тий": 6260,
      "понрави": 6261,
      "олигар": 6262,
      "Пла": 6263,
      "тики": 6264,
      "вело": 6265,
      "нку": 6266,
      "поко": 6267,
      "невозможно": 6268,
      "хаха": 6269,
      "пов": 6270,
      "лец": 6271,
      "Сталин": 6272,
      "часы": 6273,
      "большая": 6274,
      "абсолют": 6275,
      "ЕС": 6276,
      "ТУ": 6277,
      "ии": 6278,
      "науч": 6279,
      "Сидит": 6280,
      "Навального": 6281,
      "Гра": 6282,
      "войны": 6283,
      "Пен": 6284,
      "затем": 6285,
      "Це": 6286,
      "ленный": 6287,
      "Ещё": 6288,
      "нце": 6289,
      "уг": 6290,
      "Откры": 6291,
      "спросили": 6292,
      "!\",": 6293,
      "сало": 6294,
      "Бабу": 6295,
      "предложение": 6296,
      "правительства": 6297,
      "комен": 6298,
      "москов": 6299,
      "контро": 6300,
      "2020": 6301,
      "Бога": 6302,
      "старо": 6303,
      "полностью": 6304,
      "болез": 6305,
      "видишь": 6306,
      "дина": 6307,
      "цело": 6308,
      "сности": 6309,
      "дак": 6310,
      "первым": 6311,
      "грудь": 6312,
      "последнее": 6313,
      "привет": 6314,
      "бята": 6315,
      "российского": 6316,
      "ох": 6317,
      "дание": 6318,
      "столи": 6319,
      "ственная": 6320,
      "ряет": 6321,
      "рядо": 6322,
      "Вася": 6323,
      "унита": 6324,
      "мас": 6325,
      "цена": 6326,
      "ственного": 6327,
      "оборо": 6328,
      "500": 6329,
      "грамм": 6330,
      "?\".": 6331,
      "ЦИ": 6332,
      "задума": 6333,
      "чисто": 6334,
      "сыла": 6335,
      "остальные": 6336,
      "рук": 6337,
      "самой": 6338,
      "объяв": 6339,
      "ктив": 6340,
      "отде": 6341,
      "клас": 6342,
      "Навер": 6343,
      "одному": 6344,
      "Уважае": 6345,
      "чих": 6346,
      "министр": 6347,
      "лошадь": 6348,
      "думают": 6349,
      "письмо": 6350,
      "жрать": 6351,
      "виз": 6352,
      "ЭЭ": 6353,
      "двой": 6354,
      "лимпий": 6355,
      "остав": 6356,
      "жалу": 6357,
      "играет": 6358,
      "российские": 6359,
      "оконча": 6360,
      "ходу": 6361,
      "человеком": 6362,
      "апте": 6363,
      "костю": 6364,
      "пес": 6365,
      "фигу": 6366,
      "возраст": 6367,
      "дерь": 6368,
      "таре": 6369,
      "мыш": 6370,
      "трудно": 6371,
      "and": 6372,
      "Ря": 6373,
      "зация": 6374,
      "нож": 6375,
      "льд": 6376,
      "помочь": 6377,
      "досто": 6378,
      "приро": 6379,
      "бир": 6380,
      "годно": 6381,
      "пяти": 6382,
      "вере": 6383,
      "девушке": 6384,
      "школы": 6385,
      "валась": 6386,
      "пуга": 6387,
      "ктов": 6388,
      "любовь": 6389,
      "пользу": 6390,
      "Чё": 6391,
      "сексом": 6392,
      "достает": 6393,
      "заболе": 6394,
      "тое": 6395,
      "лето": 6396,
      "чиво": 6397,
      "инстру": 6398,
      "брасы": 6399,
      "твор": 6400,
      "смысле": 6401,
      "жете": 6402,
      "срок": 6403,
      "заканчи": 6404,
      "рина": 6405,
      "лили": 6406,
      "гомо": 6407,
      "зает": 6408,
      "хорошая": 6409,
      "мел": 6410,
      "вшая": 6411,
      "жим": 6412,
      "думать": 6413,
      "тради": 6414,
      "шоу": 6415,
      "интересу": 6416,
      "Сла": 6417,
      "Сэр": 6418,
      "ёма": 6419,
      "оттуда": 6420,
      "говна": 6421,
      "гры": 6422,
      "бовал": 6423,
      "Навальный": 6424,
      "am": 6425,
      "енька": 6426,
      "показывает": 6427,
      "домаш": 6428,
      "нашем": 6429,
      "Скажи": 6430,
      "задержа": 6431,
      "относ": 6432,
      "28": 6433,
      "ПУ": 6434,
      "вью": 6435,
      "ворот": 6436,
      "громко": 6437,
      "вида": 6438,
      "говоря": 6439,
      "желания": 6440,
      "мэ": 6441,
      "Пору": 6442,
      "шник": 6443,
      "сад": 6444,
      "трен": 6445,
      "Европе": 6446,
      "стях": 6447,
      "посу": 6448,
      "решение": 6449,
      "пила": 6450,
      "мясо": 6451,
      "отече": 6452,
      "квартире": 6453,
      "снять": 6454,
      "глубо": 6455,
      "фильма": 6456,
      "компьютер": 6457,
      "яр": 6458,
      "веж": 6459,
      "бель": 6460,
      "Пусть": 6461,
      "оказалось": 6462,
      "крет": 6463,
      "напи": 6464,
      "чиков": 6465,
      "живу": 6466,
      "кке": 6467,
      "стный": 6468,
      "веду": 6469,
      "сомне": 6470,
      "чемпиона": 6471,
      "ас": 6472,
      "дне": 6473,
      "забы": 6474,
      "кризи": 6475,
      "полков": 6476,
      "забо": 6477,
      "губер": 6478,
      "начать": 6479,
      "ведли": 6480,
      "выпить": 6481,
      "трех": 6482,
      "ёс": 6483,
      "прось": 6484,
      "ительство": 6485,
      "Товари": 6486,
      "карма": 6487,
      "считает": 6488,
      "eт": 6489,
      "Ры": 6490,
      "лагает": 6491,
      "микро": 6492,
      "суб": 6493,
      "хар": 6494,
      "имени": 6495,
      "настрое": 6496,
      "некоторое": 6497,
      "никому": 6498,
      "пустили": 6499,
      "you": 6500,
      "Пра": 6501,
      "муд": 6502,
      "сток": 6503,
      "резко": 6504,
      "считают": 6505,
      "скры": 6506,
      "уча": 6507,
      "социаль": 6508,
      "курить": 6509,
      "пенсии": 6510,
      "Жиз": 6511,
      "Китай": 6512,
      "террори": 6513,
      "кнул": 6514,
      "угро": 6515,
      "рукой": 6516,
      "щему": 6517,
      "дётся": 6518,
      "хотелось": 6519,
      "сексуаль": 6520,
      "переимено": 6521,
      "Пло": 6522,
      "посет": 6523,
      "лее": 6524,
      "чены": 6525,
      "семья": 6526,
      "оху": 6527,
      "кивает": 6528,
      "бух": 6529,
      "обма": 6530,
      "похоро": 6531,
      "дека": 6532,
      "блондин": 6533,
      "27": 6534,
      "револю": 6535,
      "летом": 6536,
      "ближай": 6537,
      "смеш": 6538,
      "последние": 6539,
      "надцать": 6540,
      "самым": 6541,
      "Народ": 6542,
      "Мало": 6543,
      "Кла": 6544,
      "СБ": 6545,
      "эле": 6546,
      "сидя": 6547,
      "поздно": 6548,
      "Армян": 6549,
      "ЕТ": 6550,
      "тек": 6551,
      "Учительница": 6552,
      "ого": 6553,
      "популяр": 6554,
      "искать": 6555,
      "БЭ": 6556,
      "слышали": 6557,
      "Господи": 6558,
      "территории": 6559,
      "кандида": 6560,
      "всему": 6561,
      "садится": 6562,
      "бесплат": 6563,
      "лах": 6564,
      "получится": 6565,
      "трубку": 6566,
      "дной": 6567,
      "законо": 6568,
      "стара": 6569,
      "число": 6570,
      "Поз": 6571,
      "супру": 6572,
      "каран": 6573,
      "завод": 6574,
      "Поль": 6575,
      "водитель": 6576,
      "Ват": 6577,
      "поправ": 6578,
      "Понима": 6579,
      "умный": 6580,
      "Американ": 6581,
      "Пар": 6582,
      "спросить": 6583,
      "месяца": 6584,
      "Гре": 6585,
      "рост": 6586,
      "живет": 6587,
      "пиро": 6588,
      "яй": 6589,
      "ливо": 6590,
      "дому": 6591,
      "аж": 6592,
      "мут": 6593,
      "мыть": 6594,
      "СТИ": 6595,
      "влека": 6596,
      "ственное": 6597,
      "выборов": 6598,
      "джа": 6599,
      "выясни": 6600,
      "буха": 6601,
      "пут": 6602,
      "остро": 6603,
      "участи": 6604,
      "ходишь": 6605,
      "ставляет": 6606,
      "зать": 6607,
      "ришь": 6608,
      "жерт": 6609,
      "паца": 6610,
      "избира": 6611,
      "итае": 6612,
      "одновременно": 6613,
      "окна": 6614,
      "попробу": 6615,
      "пох": 6616,
      "нитель": 6617,
      "называть": 6618,
      "Идут": 6619,
      "ээ": 6620,
      "шесть": 6621,
      "блин": 6622,
      "пенсию": 6623,
      "сообщи": 6624,
      "Германии": 6625,
      "ёба": 6626,
      "наоборот": 6627,
      "можем": 6628,
      "чилась": 6629,
      "Хол": 6630,
      "предупре": 6631,
      "приходится": 6632,
      "вве": 6633,
      "ёк": 6634,
      "гуля": 6635,
      "Мои": 6636,
      "многие": 6637,
      "рье": 6638,
      "крови": 6639,
      "находится": 6640,
      "Поручик": 6641,
      "Анато": 6642,
      "демон": 6643,
      "отправи": 6644,
      "сокра": 6645,
      "жий": 6646,
      "отноше": 6647,
      "далеко": 6648,
      "ожиданно": 6649,
      "to": 6650,
      "водо": 6651,
      "замени": 6652,
      "соеди": 6653,
      "лучший": 6654,
      "форму": 6655,
      "услу": 6656,
      "нал": 6657,
      "летел": 6658,
      "шлю": 6659,
      "выйти": 6660,
      "начинается": 6661,
      "ебал": 6662,
      "Пап": 6663,
      "сматри": 6664,
      "гну": 6665,
      "опти": 6666,
      "поги": 6667,
      "поводу": 6668,
      "мум": 6669,
      "врача": 6670,
      "комнате": 6671,
      "Иногда": 6672,
      "пот": 6673,
      "поддер": 6674,
      "свете": 6675,
      "шту": 6676,
      "основ": 6677,
      "мужиков": 6678,
      "янва": 6679,
      "заметил": 6680,
      "около": 6681,
      "разме": 6682,
      "говорите": 6683,
      "пун": 6684,
      "нных": 6685,
      "вица": 6686,
      "ствовать": 6687,
      "солда": 6688,
      "оппози": 6689,
      "ию": 6690,
      "зарабаты": 6691,
      "тело": 6692,
      "Трампа": 6693,
      "ученые": 6694,
      "япон": 6695,
      "мужем": 6696,
      "стару": 6697,
      "щики": 6698,
      "прята": 6699,
      "улыб": 6700,
      "помощь": 6701,
      "зве": 6702,
      "фла": 6703,
      "рым": 6704,
      "интел": 6705,
      "ваясь": 6706,
      "карты": 6707,
      "пытается": 6708,
      "специали": 6709,
      "Встречаются": 6710,
      "Ёжик": 6711,
      "вниз": 6712,
      "оказывается": 6713,
      "рука": 6714,
      "хокке": 6715,
      "скажет": 6716,
      "Москва": 6717,
      "дена": 6718,
      "тика": 6719,
      "концер": 6720,
      "обеспе": 6721,
      "БЭБЭ": 6722,
      "отда": 6723,
      "генерал": 6724,
      "Сан": 6725,
      "ФСБ": 6726,
      "адре": 6727,
      "гни": 6728,
      "сень": 6729,
      "мусор": 6730,
      "правил": 6731,
      "миллион": 6732,
      "назвал": 6733,
      "Был": 6734,
      "скольку": 6735,
      "порядке": 6736,
      "вки": 6737,
      "оба": 6738,
      "стреля": 6739,
      "цвета": 6740,
      "Скоро": 6741,
      "шеп": 6742,
      "щают": 6743,
      "us": 6744,
      "Авто": 6745,
      "днев": 6746,
      "дья": 6747,
      "гран": 6748,
      "возле": 6749,
      "вторая": 6750,
      "Этот": 6751,
      "общего": 6752,
      "рекомен": 6753,
      "разные": 6754,
      "молоды": 6755,
      "9999": 6756,
      "Север": 6757,
      "существует": 6758,
      "ИЗ": 6759,
      "шается": 6760,
      "Сам": 6761,
      "марш": 6762,
      "буква": 6763,
      "клуб": 6764,
      "Спраши": 6765,
      "чник": 6766,
      "жении": 6767,
      "паро": 6768,
      "Знаешь": 6769,
      "отклю": 6770,
      "Никогда": 6771,
      "оказался": 6772,
      "Соб": 6773,
      "ногу": 6774,
      "хол": 6775,
      "уничто": 6776,
      "разы": 6777,
      "Иванович": 6778,
      "ух": 6779,
      "ограни": 6780,
      "Здравствуй": 6781,
      "жные": 6782,
      "няется": 6783,
      "улицу": 6784,
      "150": 6785,
      "Смотри": 6786,
      "профессор": 6787,
      "покупать": 6788,
      "смысл": 6789,
      "нной": 6790,
      "ватель": 6791,
      "реа": 6792,
      "дуют": 6793,
      "трусы": 6794,
      "одинако": 6795,
      "Федера": 6796,
      "ува": 6797,
      "сель": 6798,
      "просыпа": 6799,
      "кура": 6800,
      "встреча": 6801,
      "тром": 6802,
      "предо": 6803,
      "наме": 6804,
      "пото": 6805,
      "моих": 6806,
      "первых": 6807,
      "замеча": 6808,
      "мите": 6809,
      "сможет": 6810,
      "фей": 6811,
      "рано": 6812,
      "сос": 6813,
      "хоже": 6814,
      "Ше": 6815,
      "ежик": 6816,
      "зала": 6817,
      "лопа": 6818,
      "циф": 6819,
      "первую": 6820,
      "трах": 6821,
      "----------------": 6822,
      "премьер": 6823,
      "Ев": 6824,
      "ниц": 6825,
      "Олимпиа": 6826,
      "Шо": 6827,
      "помощи": 6828,
      "священ": 6829,
      "ОБ": 6830,
      "Одно": 6831,
      "Америке": 6832,
      "плани": 6833,
      "головы": 6834,
      "любил": 6835,
      "футбол": 6836,
      "Лон": 6837,
      "лях": 6838,
      "ербур": 6839,
      "фун": 6840,
      "рити": 6841,
      "Украин": 6842,
      "Перед": 6843,
      "Сергей": 6844,
      "300": 6845,
      "Ор": 6846,
      "каком": 6847,
      "целый": 6848,
      "Пари": 6849,
      "Чи": 6850,
      "ака": 6851,
      "дайте": 6852,
      "массо": 6853,
      "пресс": 6854,
      "война": 6855,
      "родствен": 6856,
      "встал": 6857,
      "выта": 6858,
      "сала": 6859,
      "Простите": 6860,
      "ехала": 6861,
      "95": 6862,
      "ШЕ": 6863,
      "пости": 6864,
      "Настоя": 6865,
      "Зеленский": 6866,
      "хой": 6867,
      "рыв": 6868,
      "вернуть": 6869,
      "зоо": 6870,
      "ответствен": 6871,
      "бросил": 6872,
      "пью": 6873,
      "врачу": 6874,
      "скри": 6875,
      "мальчика": 6876,
      "Москву": 6877,
      "фин": 6878,
      "инте": 6879,
      "ссии": 6880,
      "грузин": 6881,
      "назвать": 6882,
      "интернете": 6883,
      "Бармен": 6884,
      "ЭТО": 6885,
      "ныч": 6886,
      "้้้้": 6887,
      "сохра": 6888,
      "страшно": 6889,
      "щаются": 6890,
      "КАК": 6891,
      "родился": 6892,
      "внимание": 6893,
      "экра": 6894,
      "харак": 6895,
      "правду": 6896,
      "1000": 6897,
      "Гит": 6898,
      "миру": 6899,
      "Пожа": 6900,
      "говаривают": 6901,
      "бизне": 6902,
      "сердце": 6903,
      "!—": 6904,
      "нашу": 6905,
      "девя": 6906,
      "марта": 6907,
      "рно": 6908,
      "своем": 6909,
      "сестра": 6910,
      "гали": 6911,
      "гений": 6912,
      "Александр": 6913,
      "жной": 6914,
      "кг": 6915,
      "ᅠᅠ": 6916,
      "роман": 6917,
      "использу": 6918,
      "пошла": 6919,
      "дива": 6920,
      "пида": 6921,
      "специально": 6922,
      "абсолютно": 6923,
      "разли": 6924,
      "скан": 6925,
      "Например": 6926,
      "путь": 6927,
      "ане": 6928,
      "каким": 6929,
      "зака": 6930,
      "Пушки": 6931,
      "предлагает": 6932,
      "Хочешь": 6933,
      "кa": 6934,
      "проходит": 6935,
      "соответ": 6936,
      "Ваши": 6937,
      "гляды": 6938,
      "кухне": 6939,
      "просты": 6940,
      "трёх": 6941,
      "\"-": 6942,
      "ов": 6943,
      "тка": 6944,
      "нале": 6945,
      "мощ": 6946,
      "стари": 6947,
      "рыба": 6948,
      "первая": 6949,
      "Проходит": 6950,
      "вспомина": 6951,
      "едут": 6952,
      "маме": 6953,
      "чила": 6954,
      "льном": 6955,
      "ился": 6956,
      "непри": 6957,
      "деньгами": 6958,
      "Вод": 6959,
      "вашу": 6960,
      "справедли": 6961,
      "другое": 6962,
      "подоб": 6963,
      "телефону": 6964,
      "ядер": 6965,
      "нашел": 6966,
      "плохая": 6967,
      "фамилия": 6968,
      "Ватсон": 6969,
      "аре": 6970,
      "напомина": 6971,
      "разных": 6972,
      "Нача": 6973,
      "жением": 6974,
      "Жизнь": 6975,
      "захва": 6976,
      "пать": 6977,
      "био": 6978,
      "большие": 6979,
      "голосом": 6980,
      "вино": 6981,
      "ительный": 6982,
      "Кри": 6983,
      "ог": 6984,
      "тельства": 6985,
      "государства": 6986,
      "памят": 6987,
      "ВД": 6988,
      "важно": 6989,
      "душе": 6990,
      "скорее": 6991,
      "следова": 6992,
      "другую": 6993,
      "дий": 6994,
      "играют": 6995,
      "48": 6996,
      "появ": 6997,
      "семьи": 6998,
      "аааааааа": 6999,
      "качестве": 7000,
      "особенно": 7001,
      "подпи": 7002,
      "дорогая": 7003,
      "везде": 7004,
      "объяснить": 7005,
      "ВВ": 7006,
      "бей": 7007,
      "освобо": 7008,
      "поняли": 7009,
      "кровати": 7010,
      "НЫЕ": 7011,
      "ошиб": 7012,
      "блу": 7013,
      "выки": 7014,
      "дворе": 7015,
      "государство": 7016,
      "универ": 7017,
      "оны": 7018,
      "напря": 7019,
      "Василь": 7020,
      "новое": 7021,
      "ходили": 7022,
      "джин": 7023,
      "хво": 7024,
      "бенок": 7025,
      "требо": 7026,
      "смотря": 7027,
      "историю": 7028,
      "вому": 7029,
      "деля": 7030,
      "самых": 7031,
      "счёт": 7032,
      "зали": 7033,
      "лож": 7034,
      "честно": 7035,
      "хули": 7036,
      "бирает": 7037,
      "древ": 7038,
      "квартиры": 7039,
      "ужас": 7040,
      "презервати": 7041,
      "посо": 7042,
      "маски": 7043,
      "приехал": 7044,
      "звонок": 7045,
      "депутаты": 7046,
      "учёные": 7047,
      "вашего": 7048,
      "Мю": 7049,
      "прет": 7050,
      "наказа": 7051,
      "кара": 7052,
      "засу": 7053,
      "туре": 7054,
      "спец": 7055,
      "поздрав": 7056,
      "буквы": 7057,
      "млн": 7058,
      "РЯ": 7059,
      "выс": 7060,
      "переди": 7061,
      "кир": 7062,
      "мудре": 7063,
      "сочи": 7064,
      "приви": 7065,
      "Нам": 7066,
      "армян": 7067,
      "оружие": 7068,
      "конья": 7069,
      "замо": 7070,
      "защи": 7071,
      "вечно": 7072,
      "чак": 7073,
      "первом": 7074,
      "переста": 7075,
      "Сидоров": 7076,
      "открыл": 7077,
      "приятно": 7078,
      "\"?-": 7079,
      "устраи": 7080,
      "меры": 7081,
      "Зато": 7082,
      "Газ": 7083,
      "Ги": 7084,
      "потра": 7085,
      "ляции": 7086,
      "двумя": 7087,
      "дами": 7088,
      "вызывает": 7089,
      "призы": 7090,
      "бл": 7091,
      "поп": 7092,
      "рур": 7093,
      "парт": 7094,
      "пишут": 7095,
      "Дай": 7096,
      "планет": 7097,
      "анекдоты": 7098,
      "зарплаты": 7099,
      "Ай": 7100,
      "еже": 7101,
      "мся": 7102,
      "бера": 7103,
      "двадцать": 7104,
      "прыг": 7105,
      "американец": 7106,
      "россияне": 7107,
      "ческую": 7108,
      "больно": 7109,
      "ровки": 7110,
      "исче": 7111,
      "низм": 7112,
      "удов": 7113,
      "мело": 7114,
      "берут": 7115,
      "никаких": 7116,
      "курсе": 7117,
      "примерно": 7118,
      "моря": 7119,
      "приду": 7120,
      "СТЬ": 7121,
      "гее": 7122,
      "вании": 7123,
      "реж": 7124,
      "интервью": 7125,
      "помните": 7126,
      "праздник": 7127,
      "Афри": 7128,
      "история": 7129,
      "итоге": 7130,
      "поху": 7131,
      "Мол": 7132,
      "гендер": 7133,
      "смерть": 7134,
      "каждой": 7135,
      "указа": 7136,
      "пого": 7137,
      "вышла": 7138,
      "прой": 7139,
      "памя": 7140,
      "бери": 7141,
      "бабка": 7142,
      "Воло": 7143,
      "идиот": 7144,
      "pa": 7145,
      "вшей": 7146,
      "сипе": 7147,
      "путе": 7148,
      "волну": 7149,
      "Блин": 7150,
      "точки": 7151,
      "лекар": 7152,
      "нулись": 7153,
      "ланд": 7154,
      "Собра": 7155,
      "нский": 7156,
      "ясно": 7157,
      "поки": 7158,
      "любы": 7159,
      "главный": 7160,
      "oo": 7161,
      "щика": 7162,
      "суль": 7163,
      "плать": 7164,
      "чками": 7165,
      "Откуда": 7166,
      "Андре": 7167,
      "успо": 7168,
      "рение": 7169,
      "!!!-": 7170,
      "Две": 7171,
      "Ри": 7172,
      "ителям": 7173,
      "Слышь": 7174,
      "косми": 7175,
      "26": 7176,
      "ушел": 7177,
      "остался": 7178,
      "Согла": 7179,
      "37": 7180,
      "Цен": 7181,
      "лении": 7182,
      "акти": 7183,
      "шокола": 7184,
      "начале": 7185,
      "ресторан": 7186,
      "пережи": 7187,
      "ствием": 7188,
      "заниматься": 7189,
      ";-": 7190,
      "ch": 7191,
      "ШИ": 7192,
      "руба": 7193,
      "родителей": 7194,
      "рубль": 7195,
      "иначе": 7196,
      "сзади": 7197,
      "уши": 7198,
      "повез": 7199,
      "провести": 7200,
      "сожа": 7201,
      "нуко": 7202,
      "бежит": 7203,
      "Неужели": 7204,
      "ственных": 7205,
      "миллиардов": 7206,
      "Главное": 7207,
      "авиа": 7208,
      "века": 7209,
      "отсюда": 7210,
      "сож": 7211,
      "дис": 7212,
      "англича": 7213,
      "Бан": 7214,
      "лягу": 7215,
      "Дайте": 7216,
      "ленной": 7217,
      "список": 7218,
      "языке": 7219,
      "бесконечно": 7220,
      "ГУ": 7221,
      "истори": 7222,
      ".*": 7223,
      "поставить": 7224,
      "результате": 7225,
      "кабинет": 7226,
      "Правильно": 7227,
      "Ад": 7228,
      "нько": 7229,
      "партии": 7230,
      "гии": 7231,
      "возраста": 7232,
      "интеллек": 7233,
      "виски": 7234,
      "граду": 7235,
      "Ух": 7236,
      "есте": 7237,
      "сети": 7238,
      "мерт": 7239,
      "жопе": 7240,
      "развити": 7241,
      "ЛУ": 7242,
      "вале": 7243,
      "глазами": 7244,
      "махер": 7245,
      "вёр": 7246,
      "мм": 7247,
      "жено": 7248,
      "дился": 7249,
      "летит": 7250,
      "спон": 7251,
      "будущее": 7252,
      "Холмс": 7253,
      "!...": 7254,
      "Сем": 7255,
      "Тем": 7256,
      "юри": 7257,
      "лист": 7258,
      "даю": 7259,
      "пак": 7260,
      "означает": 7261,
      "кома": 7262,
      "болит": 7263,
      "обращается": 7264,
      "Купил": 7265,
      "хрен": 7266,
      "воскре": 7267,
      "рица": 7268,
      "силы": 7269,
      "анские": 7270,
      "трое": 7271,
      "говоришь": 7272,
      "депутатов": 7273,
      "книгу": 7274,
      "бежал": 7275,
      "лыми": 7276,
      "Самый": 7277,
      "Никто": 7278,
      "оружи": 7279,
      "потреб": 7280,
      "апре": 7281,
      "неожиданно": 7282,
      "ческое": 7283,
      "начальник": 7284,
      "сторон": 7285,
      "кухню": 7286,
      "чис": 7287,
      "Наш": 7288,
      "сыну": 7289,
      "Сою": 7290,
      "умо": 7291,
      "точку": 7292,
      "беру": 7293,
      "гаран": 7294,
      "Полу": 7295,
      "чук": 7296,
      "долг": 7297,
      "ve": 7298,
      "Бил": 7299,
      "дёшь": 7300,
      "чите": 7301,
      "похоже": 7302,
      "торы": 7303,
      "февра": 7304,
      "надое": 7305,
      "факт": 7306,
      "ДЬ": 7307,
      "Деду": 7308,
      "цену": 7309,
      "цом": 7310,
      "Оде": 7311,
      "Свя": 7312,
      "брю": 7313,
      "дных": 7314,
      "риф": 7315,
      "маленькая": 7316,
      "дке": 7317,
      "рев": 7318,
      "прине": 7319,
      "гие": 7320,
      "коллек": 7321,
      "Оказывается": 7322,
      "ом": 7323,
      "выпуска": 7324,
      "придется": 7325,
      "самолет": 7326,
      "ближе": 7327,
      "мужику": 7328,
      "образом": 7329,
      "дная": 7330,
      "ште": 7331,
      "зубы": 7332,
      "взяли": 7333,
      "Моня": 7334,
      "кула": 7335,
      "души": 7336,
      "получилось": 7337,
      "народу": 7338,
      "аэро": 7339,
      "тона": 7340,
      "глазах": 7341,
      "38": 7342,
      "of": 7343,
      "ора": 7344,
      "доба": 7345,
      "руке": 7346,
      "жала": 7347,
      "темно": 7348,
      "блоки": 7349,
      "легче": 7350,
      "пьяный": 7351,
      "велосипе": 7352,
      "гвоз": 7353,
      "шпи": 7354,
      "носят": 7355,
      "чемо": 7356,
      "цир": 7357,
      "предпо": 7358,
      "началь": 7359,
      "ребенка": 7360,
      "НЯ": 7361,
      "повер": 7362,
      "лился": 7363,
      "моему": 7364,
      "чере": 7365,
      "щиков": 7366,
      "Ваш": 7367,
      "работают": 7368,
      "беремен": 7369,
      "заяв": 7370,
      "попасть": 7371,
      "вшийся": 7372,
      "ребён": 7373,
      "безопасности": 7374,
      "ke": 7375,
      "иду": 7376,
      "краса": 7377,
      "Люся": 7378,
      "союз": 7379,
      "км": 7380,
      "сдох": 7381,
      "менее": 7382,
      "готовить": 7383,
      "катего": 7384,
      "вполне": 7385,
      "сой": 7386,
      "успел": 7387,
      "мозг": 7388,
      "Товарищ": 7389,
      "СКО": 7390,
      "доль": 7391,
      "мель": 7392,
      "щица": 7393,
      "персона": 7394,
      "трав": 7395,
      "менедже": 7396,
      "Мужики": 7397,
      "Евре": 7398,
      "огу": 7399,
      "допол": 7400,
      "писто": 7401,
      "туру": 7402,
      "распро": 7403,
      "Франции": 7404,
      "Наверное": 7405,
      "ректор": 7406,
      "великий": 7407,
      "языка": 7408,
      "настоящий": 7409,
      "филосо": 7410,
      "ухо": 7411,
      "пило": 7412,
      "гим": 7413,
      "ственные": 7414,
      "кровать": 7415,
      "появился": 7416,
      "кормить": 7417,
      "ШЬ": 7418,
      "тео": 7419,
      "соци": 7420,
      "умеет": 7421,
      "десяти": 7422,
      "Ху": 7423,
      "дое": 7424,
      "слышу": 7425,
      "внутри": 7426,
      "внутрен": 7427,
      "46": 7428,
      "аген": 7429,
      "коне": 7430,
      "выстре": 7431,
      "Малень": 7432,
      "груз": 7433,
      "тября": 7434,
      "учить": 7435,
      "являет": 7436,
      "поручик": 7437,
      "проект": 7438,
      "января": 7439,
      "квадра": 7440,
      "интересо": 7441,
      "землю": 7442,
      "запретить": 7443,
      "ситуация": 7444,
      "Пите": 7445,
      "доче": 7446,
      "жир": 7447,
      "ския": 7448,
      "ленные": 7449,
      "полный": 7450,
      "взят": 7451,
      "любишь": 7452,
      "взрослы": 7453,
      "лома": 7454,
      "своём": 7455,
      "женщине": 7456,
      "альный": 7457,
      "понимает": 7458,
      "ллер": 7459,
      "воск": 7460,
      "вызы": 7461,
      "выклю": 7462,
      "нное": 7463,
      "лями": 7464,
      "Госуда": 7465,
      "Кро": 7466,
      "пое": 7467,
      "прапор": 7468,
      "самолё": 7469,
      "слушать": 7470,
      "возможность": 7471,
      "группы": 7472,
      "баксов": 7473,
      "ееееееееееееееееееееееееееееееее": 7474,
      "лёт": 7475,
      "комисси": 7476,
      "див": 7477,
      "........": 7478,
      "Решил": 7479,
      "написать": 7480,
      "Фа": 7481,
      "трет": 7482,
      "лару": 7483,
      "рила": 7484,
      "мани": 7485,
      "летки": 7486,
      "поставил": 7487,
      "Кли": 7488,
      "крити": 7489,
      "цве": 7490,
      "небо": 7491,
      "выда": 7492,
      "профессиона": 7493,
      "-\"": 7494,
      "иму": 7495,
      "американцы": 7496,
      "объясня": 7497,
      "орет": 7498,
      "рассказал": 7499,
      "ay": 7500,
      "Офици": 7501,
      "впечат": 7502,
      "рту": 7503,
      "вож": 7504,
      "вик": 7505,
      "дись": 7506,
      "ванием": 7507,
      "Кир": 7508,
      "директор": 7509,
      "шампан": 7510,
      "Япо": 7511,
      "ата": 7512,
      "спорти": 7513,
      "пойду": 7514,
      "ебану": 7515,
      "сверху": 7516,
      "тви": 7517,
      "ющая": 7518,
      "полиции": 7519,
      "Петербур": 7520,
      "держал": 7521,
      "Николай": 7522,
      "нынеш": 7523,
      "et": 7524,
      "ДЫ": 7525,
      "нде": 7526,
      "некоторые": 7527,
      "жек": 7528,
      "шеб": 7529,
      "хам": 7530,
      "которому": 7531,
      "автома": 7532,
      "бармен": 7533,
      "Их": 7534,
      "Януко": 7535,
      "млад": 7536,
      "кали": 7537,
      "отра": 7538,
      "полно": 7539,
      "проверить": 7540,
      "СКА": 7541,
      "услыша": 7542,
      "официант": 7543,
      "согласился": 7544,
      "любого": 7545,
      "существо": 7546,
      "нного": 7547,
      "подой": 7548,
      "енный": 7549,
      "оти": 7550,
      "ими": 7551,
      "читься": 7552,
      "ринов": 7553,
      "Представля": 7554,
      "ot": 7555,
      "лера": 7556,
      "стами": 7557,
      "депутат": 7558,
      "Кру": 7559,
      "Пиз": 7560,
      "зв": 7561,
      "бана": 7562,
      "собирается": 7563,
      "мысль": 7564,
      "Собчак": 7565,
      "нная": 7566,
      "наи": 7567,
      "восемь": 7568,
      "рения": 7569,
      "добра": 7570,
      "бежать": 7571,
      "убор": 7572,
      "Больше": 7573,
      "ЩЕ": 7574,
      "оке": 7575,
      "Кор": 7576,
      "подозре": 7577,
      ";\"": 7578,
      "дж": 7579,
      "дное": 7580,
      "спит": 7581,
      "фразу": 7582,
      "покуп": 7583,
      "стый": 7584,
      "показал": 7585,
      "Кра": 7586,
      "Утром": 7587,
      "содержа": 7588,
      "Киев": 7589,
      "ходы": 7590,
      "бросить": 7591,
      "свинь": 7592,
      "Вся": 7593,
      "разгово": 7594,
      "пойти": 7595,
      "помощью": 7596,
      "КЕ": 7597,
      "кви": 7598,
      "лке": 7599,
      "уха": 7600,
      "Поч": 7601,
      "фаль": 7602,
      "собаку": 7603,
      "администра": 7604,
      "li": 7605,
      "Ген": 7606,
      "Ох": 7607,
      "поми": 7608,
      "лога": 7609,
      "таб": 7610,
      "тему": 7611,
      "газа": 7612,
      "прак": 7613,
      "водить": 7614,
      "женщиной": 7615,
      "группа": 7616,
      "Стоит": 7617,
      "регу": 7618,
      "инф": 7619,
      "слож": 7620,
      "экономики": 7621,
      "Нью": 7622,
      "бог": 7623,
      "бас": 7624,
      "сыгра": 7625,
      "хвати": 7626,
      "берёт": 7627,
      "эконом": 7628,
      "дё": 7629,
      "газо": 7630,
      ".(": 7631,
      "моё": 7632,
      "дию": 7633,
      "стор": 7634,
      "Побе": 7635,
      "международ": 7636,
      "увидеть": 7637,
      "детям": 7638,
      "девушек": 7639,
      "тысячи": 7640,
      "комплек": 7641,
      "учеб": 7642,
      "знакоми": 7643,
      "Бла": 7644,
      "ост": 7645,
      "датель": 7646,
      "достал": 7647,
      "лест": 7648,
      "зина": 7649,
      "Маша": 7650,
      "понят": 7651,
      "Всем": 7652,
      "Здесь": 7653,
      "жден": 7654,
      "высту": 7655,
      "мудро": 7656,
      "разговор": 7657,
      "ментов": 7658,
      "спросила": 7659,
      "сильнее": 7660,
      "людь": 7661,
      "жается": 7662,
      "Мороз": 7663,
      "спаль": 7664,
      "кричал": 7665,
      "музыка": 7666,
      "здра": 7667,
      "срать": 7668,
      "речь": 7669,
      "пив": 7670,
      "стрем": 7671,
      "Теле": 7672,
      "Медведева": 7673,
      "расте": 7674,
      "ческим": 7675,
      "син": 7676,
      "гео": 7677,
      "чиновники": 7678,
      "пка": 7679,
      "мето": 7680,
      "стам": 7681,
      "ставил": 7682,
      "животных": 7683,
      "продукты": 7684,
      "оце": 7685,
      "см": 7686,
      "изу": 7687,
      "ктору": 7688,
      "мяг": 7689,
      "короче": 7690,
      "Весь": 7691,
      "хотела": 7692,
      "вось": 7693,
      "лена": 7694,
      "смарт": 7695,
      "догада": 7696,
      "подтвер": 7697,
      "Странно": 7698,
      "арбуз": 7699,
      "живе": 7700,
      "Похоже": 7701,
      "зная": 7702,
      "слушай": 7703,
      "зю": 7704,
      "нашёл": 7705,
      "прошу": 7706,
      "щас": 7707,
      "ставит": 7708,
      "ствии": 7709,
      "Дон": 7710,
      "деров": 7711,
      "отка": 7712,
      "видите": 7713,
      "бая": 7714,
      "запно": 7715,
      "съел": 7716,
      "вакцина": 7717,
      "людьми": 7718,
      "замен": 7719,
      "выпил": 7720,
      "силу": 7721,
      "град": 7722,
      "ленных": 7723,
      "поднять": 7724,
      "лампо": 7725,
      "Вст": 7726,
      "вёл": 7727,
      "уз": 7728,
      "принес": 7729,
      "класса": 7730,
      "минуту": 7731,
      "Ци": 7732,
      "лябин": 7733,
      "2018": 7734,
      "ГЕ": 7735,
      "мото": 7736,
      "соц": 7737,
      "ответила": 7738,
      "санкций": 7739,
      "Армянское": 7740,
      "вa": 7741,
      "ента": 7742,
      "моск": 7743,
      "отцу": 7744,
      "созна": 7745,
      "экспер": 7746,
      "тюшка": 7747,
      "98": 7748,
      "неуда": 7749,
      "приоб": 7750,
      "знали": 7751,
      "Какое": 7752,
      "Сочи": 7753,
      "Европы": 7754,
      "показать": 7755,
      "Жиринов": 7756,
      "ПРЕ": 7757,
      "заслу": 7758,
      "выро": 7759,
      "пробу": 7760,
      "войну": 7761,
      "ездить": 7762,
      "назвали": 7763,
      "лами": 7764,
      "мам": 7765,
      "пати": 7766,
      "гара": 7767,
      "слышит": 7768,
      "экспе": 7769,
      "месяцев": 7770,
      "счастье": 7771,
      "36": 7772,
      "ужин": 7773,
      "разбира": 7774,
      "рета": 7775,
      "ответить": 7776,
      "Господа": 7777,
      "ретились": 7778,
      "произошло": 7779,
      "Бабушка": 7780,
      "корпора": 7781,
      "Белару": 7782,
      "ресторане": 7783,
      "Официант": 7784,
      "НЬ": 7785,
      "взо": 7786,
      "пр": 7787,
      "сный": 7788,
      "пок": 7789,
      "водой": 7790,
      "рыбал": 7791,
      "цели": 7792,
      "ногие": 7793,
      "зарплата": 7794,
      "жениться": 7795,
      "ёнок": 7796,
      "расы": 7797,
      "конститу": 7798,
      "никах": 7799,
      "Однако": 7800,
      "Чубай": 7801,
      "статисти": 7802,
      "могла": 7803,
      "uck": 7804,
      "нав": 7805,
      "мик": 7806,
      "цене": 7807,
      "Прода": 7808,
      "придумали": 7809,
      "Ивановна": 7810,
      "Мор": 7811,
      "демии": 7812,
      "чено": 7813,
      "лят": 7814,
      "транс": 7815,
      "мете": 7816,
      "табли": 7817,
      "лени": 7818,
      "рывается": 7819,
      "живо": 7820,
      "ковь": 7821,
      "водка": 7822,
      "строить": 7823,
      "хорошего": 7824,
      "==": 7825,
      "пo": 7826,
      "рези": 7827,
      "пали": 7828,
      "люсь": 7829,
      "Наши": 7830,
      "первое": 7831,
      "ворачивается": 7832,
      "тал": 7833,
      "пев": 7834,
      "пьют": 7835,
      "штейн": 7836,
      "гр": 7837,
      "появляется": 7838,
      "рецеп": 7839,
      "бора": 7840,
      "вете": 7841,
      "полгода": 7842,
      "шоке": 7843,
      "второго": 7844,
      "Москов": 7845,
      "центре": 7846,
      "Послед": 7847,
      "автомобиль": 7848,
      "47": 7849,
      "нулась": 7850,
      "разби": 7851,
      "возмож": 7852,
      "экстре": 7853,
      "id": 7854,
      "ЗО": 7855,
      "считы": 7856,
      "насило": 7857,
      "выле": 7858,
      "гия": 7859,
      "центра": 7860,
      "ченко": 7861,
      "использовать": 7862,
      "понеде": 7863,
      "лице": 7864,
      "воров": 7865,
      "Само": 7866,
      "зелё": 7867,
      "Господин": 7868,
      "озе": 7869,
      "нака": 7870,
      "видом": 7871,
      "сись": 7872,
      "твоего": 7873,
      "секун": 7874,
      "ГРА": 7875,
      "рку": 7876,
      "гивает": 7877,
      "Тво": 7878,
      "Хм": 7879,
      "прит": 7880,
      "дого": 7881,
      "проще": 7882,
      "пало": 7883,
      "лёг": 7884,
      "Старый": 7885,
      "свида": 7886,
      "этаж": 7887,
      "бумаги": 7888,
      "Вре": 7889,
      "ёд": 7890,
      "поменя": 7891,
      "видеть": 7892,
      "препода": 7893,
      "Россией": 7894,
      "Вообще": 7895,
      "ro": 7896,
      "ждут": 7897,
      "чивать": 7898,
      "бами": 7899,
      "Таки": 7900,
      "совеща": 7901,
      "чишь": 7902,
      "жат": 7903,
      "доллар": 7904,
      "снимает": 7905,
      "здоровье": 7906,
      "be": 7907,
      "белый": 7908,
      "белые": 7909,
      "Заходят": 7910,
      "берг": 7911,
      "ввести": 7912,
      "новым": 7913,
      "реше": 7914,
      "боюсь": 7915,
      "хох": 7916,
      "перепута": 7917,
      "миллиона": 7918,
      "Понял": 7919,
      "Али": 7920,
      "двер": 7921,
      "гады": 7922,
      "имеют": 7923,
      "ситуации": 7924,
      "декабря": 7925,
      "видев": 7926,
      "!©": 7927,
      "Олег": 7928,
      "гнали": 7929,
      "оз": 7930,
      "роб": 7931,
      "купе": 7932,
      "бах": 7933,
      "Помни": 7934,
      "Наде": 7935,
      "конферен": 7936,
      "земле": 7937,
      "магазина": 7938,
      "Гар": 7939,
      "Царь": 7940,
      "Яро": 7941,
      "покой": 7942,
      "зара": 7943,
      "ложил": 7944,
      "тесь": 7945,
      "сал": 7946,
      "всеми": 7947,
      "знамени": 7948,
      "плане": 7949,
      "армя": 7950,
      "Вово": 7951,
      "мужчину": 7952,
      "волшеб": 7953,
      "фраза": 7954,
      "ваюсь": 7955,
      "рейти": 7956,
      "ровно": 7957,
      "Петр": 7958,
      "правило": 7959,
      "Роди": 7960,
      "задницу": 7961,
      "уровень": 7962,
      "Род": 7963,
      "сму": 7964,
      "выступ": 7965,
      "нуться": 7966,
      "дедушка": 7967,
      "секунд": 7968,
      "губернато": 7969,
      "столе": 7970,
      "писы": 7971,
      "никакой": 7972,
      "жопы": 7973,
      "пытался": 7974,
      "ВВП": 7975,
      "практически": 7976,
      "масло": 7977,
      "сии": 7978,
      "хирур": 7979,
      "совету": 7980,
      "Сви": 7981,
      "ниже": 7982,
      "дама": 7983,
      "рете": 7984,
      "отвечают": 7985,
      "Директор": 7986,
      "коронавирус": 7987,
      "Хотя": 7988,
      "Пошел": 7989,
      "пласти": 7990,
      "обосра": 7991,
      "американский": 7992,
      "финансо": 7993,
      "\":": 7994,
      "маты": 7995,
      "бовать": 7996,
      "полчаса": 7997,
      "большинство": 7998,
      "входит": 7999,
      "зме": 8000,
      "горит": 8001,
      "палец": 8002,
      "циа": 8003,
      "Мам": 8004,
      "корабль": 8005,
      "Вну": 8006,
      "ЦЕ": 8007,
      "коше": 8008,
      "коров": 8009,
      "вовсе": 8010,
      "сделала": 8011,
      "корре": 8012,
      "гнал": 8013,
      "млрд": 8014,
      "66": 8015,
      "чении": 8016,
      "вру": 8017,
      "юморе": 8018,
      "Пришел": 8019,
      "пожар": 8020,
      "one": 8021,
      "особо": 8022,
      "ad": 8023,
      "пите": 8024,
      "фанта": 8025,
      "делали": 8026,
      "Разговаривают": 8027,
      "убил": 8028,
      "запах": 8029,
      "Предлага": 8030,
      "въ": 8031,
      "кта": 8032,
      "навстречу": 8033,
      "большую": 8034,
      "волосы": 8035,
      "выпуск": 8036,
      "другая": 8037,
      "никакого": 8038,
      "ракеты": 8039,
      "психиа": 8040,
      "pe": 8041,
      "ых": 8042,
      "эпи": 8043,
      "яи": 8044,
      "нала": 8045,
      "новили": 8046,
      "стату": 8047,
      "придумал": 8048,
      "действия": 8049,
      "собаки": 8050,
      "соседа": 8051,
      "пахнет": 8052,
      "Лет": 8053,
      "кса": 8054,
      "тира": 8055,
      "ционе": 8056,
      "чках": 8057,
      "Девочка": 8058,
      "бабушки": 8059,
      "Мать": 8060,
      "Каж": 8061,
      "Первая": 8062,
      "дерево": 8063,
      "прекрасно": 8064,
      "воздух": 8065,
      "телефона": 8066,
      "всякий": 8067,
      "Короче": 8068,
      "ЕЕ": 8069,
      "снег": 8070,
      "чины": 8071,
      "Российские": 8072,
      "็็็็": 8073,
      "зря": 8074,
      "колен": 8075,
      "тела": 8076,
      "коммента": 8077,
      "2014": 8078,
      "фору": 8079,
      "форме": 8080,
      "господа": 8081,
      "кровь": 8082,
      "Гражда": 8083,
      "путеше": 8084,
      "угодно": 8085,
      "русом": 8086,
      "гаи": 8087,
      "Затем": 8088,
      "Депута": 8089,
      "Рого": 8090,
      "ЛИСЬ": 8091,
      "чувствую": 8092,
      "Едут": 8093,
      "вный": 8094,
      "потен": 8095,
      "?–": 8096,
      "Третий": 8097,
      "небе": 8098,
      "широ": 8099,
      "корова": 8100,
      "свидете": 8101,
      "Женщины": 8102,
      "аппара": 8103,
      "ХУЙ": 8104,
      "Год": 8105,
      "дона": 8106,
      "мастер": 8107,
      "подряд": 8108,
      "инвали": 8109,
      "зимой": 8110,
      "мнение": 8111,
      "свидания": 8112,
      "спубли": 8113,
      "записку": 8114,
      "технологи": 8115,
      "ВУ": 8116,
      "стыдно": 8117,
      "спут": 8118,
      "потерял": 8119,
      "соли": 8120,
      "бую": 8121,
      "летний": 8122,
      "растут": 8123,
      "яя": 8124,
      "матер": 8125,
      "прогу": 8126,
      "баре": 8127,
      "слома": 8128,
      "минимум": 8129,
      "футболь": 8130,
      "внеш": 8131,
      "совето": 8132,
      "ГБ": 8133,
      "евич": 8134,
      "отпуск": 8135,
      "пени": 8136,
      "бега": 8137,
      "чала": 8138,
      "негр": 8139,
      "брита": 8140,
      "уголов": 8141,
      "ристи": 8142,
      "бище": 8143,
      "играли": 8144,
      "глядя": 8145,
      "Кур": 8146,
      "клон": 8147,
      "принять": 8148,
      "уроке": 8149,
      "смеяться": 8150,
      "Тре": 8151,
      "ужи": 8152,
      "пова": 8153,
      "бура": 8154,
      "казалось": 8155,
      "Газпро": 8156,
      "КС": 8157,
      "ано": 8158,
      "употре": 8159,
      "разви": 8160,
      "мети": 8161,
      "жителей": 8162,
      "успешно": 8163,
      "попыт": 8164,
      "носи": 8165,
      "дует": 8166,
      "останови": 8167,
      "высоко": 8168,
      "Российской": 8169,
      "автобус": 8170,
      "лий": 8171,
      "домо": 8172,
      "столом": 8173,
      "чиком": 8174,
      "суро": 8175,
      "меняет": 8176,
      "тянет": 8177,
      "ченный": 8178,
      "Абрам": 8179,
      "отме": 8180,
      "лян": 8181,
      "пинг": 8182,
      "чном": 8183,
      "держит": 8184,
      "ремонт": 8185,
      "Пря": 8186,
      "око": 8187,
      "прожи": 8188,
      "бывают": 8189,
      "сайте": 8190,
      "тупы": 8191,
      "темпера": 8192,
      "государь": 8193,
      "Гей": 8194,
      "стает": 8195,
      "лянд": 8196,
      "вторую": 8197,
      "гемо": 8198,
      "живёт": 8199,
      "культуры": 8200,
      "требует": 8201,
      "29": 8202,
      "Эр": 8203,
      "тет": 8204,
      "таком": 8205,
      "пау": 8206,
      "просил": 8207,
      "обед": 8208,
      "говорила": 8209,
      "подошел": 8210,
      "ЮТ": 8211,
      "эль": 8212,
      "лоб": 8213,
      "ряется": 8214,
      "хорошие": 8215,
      "телевизору": 8216,
      "СКИ": 8217,
      "агент": 8218,
      "рочка": 8219,
      "вак": 8220,
      "реш": 8221,
      "дах": 8222,
      "тари": 8223,
      "контак": 8224,
      "спрашиваю": 8225,
      "понимаете": 8226,
      "Ленина": 8227,
      "Любов": 8228,
      "пускает": 8229,
      "февраля": 8230,
      "веру": 8231,
      "мило": 8232,
      "душ": 8233,
      "рится": 8234,
      "Сара": 8235,
      "Видит": 8236,
      "довольно": 8237,
      "Францу": 8238,
      "впервые": 8239,
      "тo": 8240,
      "роваться": 8241,
      "нефти": 8242,
      "исте": 8243,
      "забот": 8244,
      "вечера": 8245,
      "жая": 8246,
      "полной": 8247,
      "Боже": 8248,
      "справедливо": 8249,
      "сожалению": 8250,
      "пола": 8251,
      "воль": 8252,
      "меша": 8253,
      "пари": 8254,
      "крат": 8255,
      "думали": 8256,
      "Песков": 8257,
      "хозяин": 8258,
      "готовы": 8259,
      "ИИ": 8260,
      "Собя": 8261,
      "ец": 8262,
      "еле": 8263,
      "щь": 8264,
      "дочка": 8265,
      "тать": 8266,
      "отмени": 8267,
      "целу": 8268,
      "Самое": 8269,
      "имуще": 8270,
      "УУ": 8271,
      "зли": 8272,
      "конь": 8273,
      "ваших": 8274,
      "видимо": 8275,
      "приходят": 8276,
      "подарил": 8277,
      "НЕТ": 8278,
      "подумали": 8279,
      "Возвра": 8280,
      "рису": 8281,
      "состав": 8282,
      "избав": 8283,
      "кель": 8284,
      "сложно": 8285,
      "Работа": 8286,
      "чью": 8287,
      "возьми": 8288,
      "удовлет": 8289,
      "подоро": 8290,
      "ребенок": 8291,
      "старик": 8292,
      "Путиным": 8293,
      "вшим": 8294,
      "счастья": 8295,
      "довой": 8296,
      "присут": 8297,
      "шими": 8298,
      "знак": 8299,
      "стене": 8300,
      "получает": 8301,
      "ствуют": 8302,
      "испыта": 8303,
      "свинья": 8304,
      "едино": 8305,
      "подумать": 8306,
      "тяжело": 8307,
      "34": 8308,
      "ЛЫ": 8309,
      "ест": 8310,
      "жится": 8311,
      "песни": 8312,
      "рыбу": 8313,
      "ванной": 8314,
      "прям": 8315,
      "сутки": 8316,
      "Президента": 8317,
      "нe": 8318,
      "валось": 8319,
      "большим": 8320,
      "экс": 8321,
      "Америка": 8322,
      "вспомнил": 8323,
      "ницей": 8324,
      "кала": 8325,
      "2012": 8326,
      "ванный": 8327,
      "предложили": 8328,
      "холодильник": 8329,
      "Фор": 8330,
      "жке": 8331,
      "рад": 8332,
      "тепло": 8333,
      "пакет": 8334,
      "пидор": 8335,
      "своло": 8336,
      "расши": 8337,
      "пропаган": 8338,
      "тягивает": 8339,
      "la": 8340,
      "un": 8341,
      "тино": 8342,
      "преж": 8343,
      "ровку": 8344,
      "красный": 8345,
      "Чита": 8346,
      "видят": 8347,
      "сажи": 8348,
      "слад": 8349,
      "заметно": 8350,
      "математик": 8351,
      "интелли": 8352,
      "78": 8353,
      "гнать": 8354,
      "Звонок": 8355,
      "жник": 8356,
      "соси": 8357,
      "прие": 8358,
      "бабки": 8359,
      "ПОД": 8360,
      "обычный": 8361,
      "смотрели": 8362,
      "Говорит": 8363,
      "помнишь": 8364,
      "виноват": 8365,
      "жных": 8366,
      "литера": 8367,
      "рель": 8368,
      "вирус": 8369,
      "поддержи": 8370,
      "перевод": 8371,
      "труд": 8372,
      "вероят": 8373,
      "олимпий": 8374,
      "отрав": 8375,
      "жество": 8376,
      "ньте": 8377,
      "контра": 8378,
      "Сосе": 8379,
      "обрат": 8380,
      "принял": 8381,
      "мозги": 8382,
      "туалете": 8383,
      "шляпу": 8384,
      "Михаил": 8385,
      "Государ": 8386,
      ".–": 8387,
      "Сбер": 8388,
      "нился": 8389,
      "чудо": 8390,
      "войска": 8391,
      "стоял": 8392,
      "купила": 8393,
      "верить": 8394,
      "стую": 8395,
      "армию": 8396,
      "стоять": 8397,
      "намного": 8398,
      "деревне": 8399,
      "зоопар": 8400,
      "Едет": 8401,
      "Пят": 8402,
      "роли": 8403,
      "боятся": 8404,
      "бать": 8405,
      "фика": 8406,
      "трам": 8407,
      "получать": 8408,
      "учиться": 8409,
      "ТВО": 8410,
      "сре": 8411,
      "являются": 8412,
      "плохой": 8413,
      "огромный": 8414,
      "необходимо": 8415,
      "апреля": 8416,
      "pи": 8417,
      "СК": 8418,
      "игро": 8419,
      "отор": 8420,
      "награ": 8421,
      "пройти": 8422,
      "площади": 8423,
      "Эти": 8424,
      "рабинович": 8425,
      "путин": 8426,
      "хорошее": 8427,
      "дождь": 8428,
      "Британские": 8429,
      "огонь": 8430,
      "университ": 8431,
      "сгоре": 8432,
      "покры": 8433,
      "маму": 8434,
      "каждую": 8435,
      "****": 8436,
      "Госдумы": 8437,
      "Разговор": 8438,
      "звучит": 8439,
      "рист": 8440,
      "собесе": 8441,
      "желез": 8442,
      "граф": 8443,
      "време": 8444,
      "Ник": 8445,
      "появилась": 8446,
      "культур": 8447,
      "Фима": 8448,
      "соста": 8449,
      "Коло": 8450,
      "службы": 8451,
      "обороны": 8452,
      "роя": 8453,
      "осно": 8454,
      "торго": 8455,
      "появились": 8456,
      "Золо": 8457,
      "se": 8458,
      "рёт": 8459,
      "кошка": 8460,
      "матри": 8461,
      "жент": 8462,
      "хие": 8463,
      "центр": 8464,
      "ченные": 8465,
      "супермар": 8466,
      "убить": 8467,
      "горь": 8468,
      "придётся": 8469,
      "тыми": 8470,
      "знаем": 8471,
      "концов": 8472,
      "Европа": 8473,
      "Гри": 8474,
      "Тру": 8475,
      "аресто": 8476,
      "неиз": 8477,
      "ванию": 8478,
      "прочитал": 8479,
      "жих": 8480,
      "фига": 8481,
      "смогли": 8482,
      "скром": 8483,
      "простой": 8484,
      "Владимира": 8485,
      "Люби": 8486,
      "удобно": 8487,
      "ge": 8488,
      "прили": 8489,
      "президенты": 8490,
      "владель": 8491,
      "рассказывать": 8492,
      "аниме": 8493,
      "Гля": 8494,
      "ЦЦА": 8495,
      "ЩИ": 8496,
      "агре": 8497,
      "вни": 8498,
      "льян": 8499,
      "минет": 8500,
      "стира": 8501,
      "снял": 8502,
      "успеш": 8503,
      "учительница": 8504,
      "настроение": 8505,
      "боится": 8506,
      "нув": 8507,
      "принад": 8508,
      "привез": 8509,
      "скакивает": 8510,
      "льному": 8511,
      "нашим": 8512,
      "литров": 8513,
      "состоянии": 8514,
      "ЕБА": 8515,
      "Лев": 8516,
      "ав": 8517,
      "ревно": 8518,
      "стрелять": 8519,
      "Мини": 8520,
      "чувства": 8521,
      "гордо": 8522,
      "Представ": 8523,
      "Евгений": 8524,
      "экспери": 8525,
      "жентль": 8526,
      "ауди": 8527,
      "вверх": 8528,
      "бензин": 8529,
      "сообщение": 8530,
      "маршрут": 8531,
      "Вз": 8532,
      "Итак": 8533,
      "делаете": 8534,
      "Зав": 8535,
      "раскры": 8536,
      "любить": 8537,
      "психо": 8538,
      "законы": 8539,
      "31": 8540,
      "?!!": 8541,
      "ёб": 8542,
      "заря": 8543,
      "Нужно": 8544,
      "арде": 8545,
      "тельной": 8546,
      "открыть": 8547,
      "жители": 8548,
      "инопланет": 8549,
      ")))": 8550,
      "подруги": 8551,
      "kon": 8552,
      "Вин": 8553,
      "присоеди": 8554,
      "хать": 8555,
      "песню": 8556,
      "звали": 8557,
      "ово": 8558,
      "посыла": 8559,
      "льи": 8560,
      "вед": 8561,
      "СТРА": 8562,
      "банке": 8563,
      "испуга": 8564,
      "???-": 8565,
      "летать": 8566,
      "летели": 8567,
      "%.": 8568,
      "Анекдо": 8569,
      "зрите": 8570,
      "нила": 8571,
      "самую": 8572,
      "сказы": 8573,
      "берегу": 8574,
      "друзьями": 8575,
      "достоин": 8576,
      "Слава": 8577,
      "um": 8578,
      "ели": 8579,
      "наслед": 8580,
      "носки": 8581,
      "боли": 8582,
      "Ваша": 8583,
      "Патри": 8584,
      "Генера": 8585,
      "поднимает": 8586,
      "БЛЯТЬ": 8587,
      "Голос": 8588,
      "жалуется": 8589,
      "Бреж": 8590,
      "Янде": 8591,
      "бесс": 8592,
      "изм": 8593,
      "ственным": 8594,
      "объявил": 8595,
      "розо": 8596,
      "ково": 8597,
      "реаль": 8598,
      "тишина": 8599,
      "паспорт": 8600,
      "Воро": 8601,
      "писали": 8602,
      "лучшие": 8603,
      "минуты": 8604,
      "Правительство": 8605,
      "показывают": 8606,
      "ковы": 8607,
      "нину": 8608,
      "лено": 8609,
      "Вова": 8610,
      "врачи": 8611,
      "получа": 8612,
      "удар": 8613,
      "встаёт": 8614,
      "ННО": 8615,
      "Особ": 8616,
      "Ум": 8617,
      ".....": 8618,
      "моим": 8619,
      "жесто": 8620,
      "пая": 8621,
      "зуб": 8622,
      "ищет": 8623,
      "повезло": 8624,
      "стры": 8625,
      "независи": 8626,
      "бабы": 8627,
      "хан": 8628,
      "словом": 8629,
      "труда": 8630,
      "ющем": 8631,
      "создал": 8632,
      "внимания": 8633,
      "единственный": 8634,
      "бюджета": 8635,
      "прошлом": 8636,
      "ушла": 8637,
      "завя": 8638,
      "лям": 8639,
      "работаю": 8640,
      "собак": 8641,
      "канал": 8642,
      "коммуни": 8643,
      "Грузин": 8644,
      "ёбаный": 8645,
      "платье": 8646,
      "Спар": 8647,
      "натор": 8648,
      "моги": 8649,
      "тарака": 8650,
      "изнасило": 8651,
      "стья": 8652,
      "рядок": 8653,
      "подготов": 8654,
      "мнению": 8655,
      "король": 8656,
      "рюпин": 8657,
      "принимать": 8658,
      "князь": 8659,
      "топ": 8660,
      "рассказать": 8661,
      "поняла": 8662,
      "спаса": 8663,
      "запретили": 8664,
      "Оче": 8665,
      "явно": 8666,
      "лозу": 8667,
      "чева": 8668,
      "Тол": 8669,
      "недоуме": 8670,
      "серьёз": 8671,
      "зa": 8672,
      "моска": 8673,
      "жима": 8674,
      "леты": 8675,
      "новь": 8676,
      "умные": 8677,
      "компания": 8678,
      "Белору": 8679,
      "процентов": 8680,
      "бухгал": 8681,
      "\".-": 8682,
      "si": 8683,
      "ГЭ": 8684,
      "ипоте": 8685,
      "точка": 8686,
      "капитан": 8687,
      "деби": 8688,
      "фана": 8689,
      "жом": 8690,
      "уточ": 8691,
      "серьез": 8692,
      "Наташа": 8693,
      "Еврей": 8694,
      "Бор": 8695,
      "Дона": 8696,
      "Сте": 8697,
      "ждет": 8698,
      "кнуть": 8699,
      "приносит": 8700,
      "столо": 8701,
      "цивили": 8702,
      "Вой": 8703,
      "слабо": 8704,
      "Европу": 8705,
      "свадьбы": 8706,
      "наж": 8707,
      "пообещал": 8708,
      "теря": 8709,
      "пустя": 8710,
      "жок": 8711,
      "девствен": 8712,
      "ra": 8713,
      "ссу": 8714,
      "ногами": 8715,
      "валя": 8716,
      "рекор": 8717,
      "приходи": 8718,
      "Хозя": 8719,
      "Милый": 8720,
      "женился": 8721,
      "Завтра": 8722,
      "Многие": 8723,
      "поку": 8724,
      "числе": 8725,
      "менти": 8726,
      "порта": 8727,
      "заявила": 8728,
      "медведя": 8729,
      "многих": 8730,
      "охран": 8731,
      "кусок": 8732,
      "возник": 8733,
      "имел": 8734,
      "окружа": 8735,
      "рази": 8736,
      "прежде": 8737,
      "семью": 8738,
      "ракет": 8739,
      "симпати": 8740,
      "оптими": 8741,
      "претен": 8742,
      "ЕМ": 8743,
      "недоста": 8744,
      "ложить": 8745,
      "дене": 8746,
      "левой": 8747,
      "отрица": 8748,
      "разру": 8749,
      "молчит": 8750,
      "Америки": 8751,
      "евреев": 8752,
      "книги": 8753,
      "цветы": 8754,
      "образования": 8755,
      "парикмахер": 8756,
      "суббот": 8757,
      "Взя": 8758,
      "макси": 8759,
      "мешок": 8760,
      "няка": 8761,
      "щении": 8762,
      "актив": 8763,
      "чут": 8764,
      "шё": 8765,
      "роль": 8766,
      "совы": 8767,
      "алкоголи": 8768,
      "Пенси": 8769,
      "посуду": 8770,
      "Мюллер": 8771,
      "адво": 8772,
      "реп": 8773,
      "сели": 8774,
      "приезжа": 8775,
      "чин": 8776,
      "сантех": 8777,
      "ступать": 8778,
      "загля": 8779,
      "рубе": 8780,
      "чами": 8781,
      "избра": 8782,
      "стола": 8783,
      "сур": 8784,
      "странно": 8785,
      "средства": 8786,
      "еды": 8787,
      "услышал": 8788,
      "некоторых": 8789,
      "заи": 8790,
      "Кому": 8791,
      "Моро": 8792,
      "пыты": 8793,
      "солнце": 8794,
      "воспита": 8795,
      "должность": 8796,
      "премье": 8797,
      "встретил": 8798,
      "Анатолье": 8799,
      "поскольку": 8800,
      "нихуя": 8801,
      "кучу": 8802,
      "возбу": 8803,
      "продавать": 8804,
      "победы": 8805,
      "отлично": 8806,
      "влия": 8807,
      "реклама": 8808,
      "каждому": 8809,
      "голосовать": 8810,
      "Пя": 8811,
      "трой": 8812,
      "выбрать": 8813,
      "пизда": 8814,
      "стями": 8815,
      "дри": 8816,
      "тится": 8817,
      "тест": 8818,
      "век": 8819,
      "вышли": 8820,
      "подь": 8821,
      "порто": 8822,
      "земля": 8823,
      "Иваныч": 8824,
      "клоу": 8825,
      "хрена": 8826,
      "Меркель": 8827,
      "зана": 8828,
      "отказы": 8829,
      "зима": 8830,
      "остались": 8831,
      "мозга": 8832,
      "политики": 8833,
      "внимательно": 8834,
      "pо": 8835,
      "брод": 8836,
      "гите": 8837,
      "зил": 8838,
      "ставку": 8839,
      "ответили": 8840,
      "помогает": 8841,
      "идио": 8842,
      "половина": 8843,
      "Велико": 8844,
      "заседа": 8845,
      "талан": 8846,
      "печень": 8847,
      "дур": 8848,
      "нял": 8849,
      "стил": 8850,
      "гип": 8851,
      "гулять": 8852,
      "вайтесь": 8853,
      "нужден": 8854,
      "принципе": 8855,
      "Дедушка": 8856,
      "фро": 8857,
      "камеру": 8858,
      "тату": 8859,
      "самоизо": 8860,
      "либера": 8861,
      "скажешь": 8862,
      "жизнен": 8863,
      "волк": 8864,
      "Сёма": 8865,
      "оцен": 8866,
      "убира": 8867,
      "гол": 8868,
      "вовремя": 8869,
      "завер": 8870,
      "выпла": 8871,
      "акции": 8872,
      "плюс": 8873,
      "Дя": 8874,
      "Нем": 8875,
      "умне": 8876,
      "ёрт": 8877,
      "леть": 8878,
      "полиция": 8879,
      "Челябин": 8880,
      "евреи": 8881,
      "население": 8882,
      "ed": 8883,
      "ОН": 8884,
      "воору": 8885,
      "суде": 8886,
      "гине": 8887,
      "богат": 8888,
      "продолжает": 8889,
      "лицом": 8890,
      "ситуацию": 8891,
      "беспоко": 8892,
      "дочери": 8893,
      "ВС": 8894,
      "спрята": 8895,
      "рода": 8896,
      "лаз": 8897,
      "разбойник": 8898,
      "больнице": 8899,
      "Тебя": 8900,
      "взяла": 8901,
      "фильмы": 8902,
      "смотришь": 8903,
      "возрасте": 8904,
      "dow": 8905,
      "Шой": 8906,
      "рога": 8907,
      "сорти": 8908,
      "тила": 8909,
      "быст": 8910,
      "рыва": 8911,
      "хуе": 8912,
      "корми": 8913,
      "Госду": 8914,
      "идея": 8915,
      "выглядит": 8916,
      "подъезда": 8917,
      "борьбы": 8918,
      "гноз": 8919,
      "Федерации": 8920,
      "Предлагаю": 8921,
      "опро": 8922,
      "коня": 8923,
      "отмет": 8924,
      "пел": 8925,
      "изобра": 8926,
      "самому": 8927,
      "покажу": 8928,
      "школь": 8929,
      "мировой": 8930,
      "платят": 8931,
      "ВЕР": 8932,
      "бутылки": 8933,
      "букву": 8934,
      "эффектив": 8935,
      "сериа": 8936,
      "деда": 8937,
      "твоих": 8938,
      "мужчиной": 8939,
      "Америку": 8940,
      "39": 8941,
      "Мил": 8942,
      "лия": 8943,
      "ребята": 8944,
      "прием": 8945,
      "шар": 8946,
      "психоло": 8947,
      "встает": 8948,
      "холодиль": 8949,
      "Волк": 8950,
      "Кстати": 8951,
      "душу": 8952,
      "трени": 8953,
      "русски": 8954,
      "чета": 8955,
      "хваста": 8956,
      "заяц": 8957,
      "космос": 8958,
      "мотоци": 8959,
      "Шойгу": 8960,
      "lo": 8961,
      "Эта": 8962,
      "кости": 8963,
      "даст": 8964,
      "осмо": 8965,
      "кроко": 8966,
      "вернуться": 8967,
      "гита": 8968,
      "нную": 8969,
      "эм": 8970,
      "поспо": 8971,
      "залез": 8972,
      "гани": 8973,
      "читаю": 8974,
      "нутся": 8975,
      "большое": 8976,
      "спустя": 8977,
      "Уважаемые": 8978,
      "полковник": 8979,
      "Великобрита": 8980,
      "Ура": 8981,
      "звание": 8982,
      "торо": 8983,
      "лева": 8984,
      "старая": 8985,
      "Будь": 8986,
      "жалко": 8987,
      "купю": 8988,
      "Думаю": 8989,
      "штраф": 8990,
      "память": 8991,
      "55": 8992,
      "зла": 8993,
      "налоги": 8994,
      "Закон": 8995,
      "состояние": 8996,
      "вь": 8997,
      "поменять": 8998,
      "вещь": 8999,
      "кули": 9000,
      "хоз": 9001,
      "федера": 9002,
      "развод": 9003,
      "суп": 9004,
      "встречает": 9005,
      "ментарно": 9006,
      "Деньги": 9007,
      "Коммента": 9008,
      "ристо": 9009,
      "просят": 9010,
      "арти": 9011,
      "телем": 9012,
      "фоне": 9013,
      "поликли": 9014,
      "Разбойник": 9015,
      "вашем": 9016,
      "девочки": 9017,
      ":«": 9018,
      "впереди": 9019,
      "оре": 9020,
      "натура": 9021,
      "ваго": 9022,
      "лька": 9023,
      "сения": 9024,
      "чивает": 9025,
      "цах": 9026,
      "алка": 9027,
      "экзаме": 9028,
      "забира": 9029,
      "однако": 9030,
      "валить": 9031,
      "любимый": 9032,
      "растет": 9033,
      "результат": 9034,
      "исключительно": 9035,
      "регуляр": 9036,
      "MM": 9037,
      "эл": 9038,
      "строитель": 9039,
      "форм": 9040,
      "заняться": 9041,
      "рекламу": 9042,
      "Следу": 9043,
      "заменить": 9044,
      "развития": 9045,
      "зда": 9046,
      "зами": 9047,
      "чику": 9048,
      "ционер": 9049,
      "суди": 9050,
      "шаг": 9051,
      "ковский": 9052,
      "импера": 9053,
      "вариант": 9054,
      "дворец": 9055,
      "Карл": 9056,
      "ляндский": 9057,
      "зей": 9058,
      "опоз": 9059,
      "шлы": 9060,
      "щить": 9061,
      "малы": 9062,
      "ставили": 9063,
      "душа": 9064,
      "разно": 9065,
      "верю": 9066,
      "делаю": 9067,
      "вторых": 9068,
      "Прошло": 9069,
      "положил": 9070,
      "соседи": 9071,
      "Земле": 9072,
      "77": 9073,
      "ri": 9074,
      "ДД": 9075,
      "ющую": 9076,
      "изме": 9077,
      "мяса": 9078,
      "глава": 9079,
      "Пуга": 9080,
      "любимая": 9081,
      "адрес": 9082,
      "Француз": 9083,
      "ПЛА": 9084,
      "Хер": 9085,
      "Эк": 9086,
      "взор": 9087,
      "гвар": 9088,
      "хро": 9089,
      "приговари": 9090,
      "Казах": 9091,
      "голосу": 9092,
      "совмест": 9093,
      "понимают": 9094,
      "здоровья": 9095,
      "ut": 9096,
      "причина": 9097,
      "обли": 9098,
      "цар": 9099,
      "зино": 9100,
      "заявили": 9101,
      "команду": 9102,
      "осу": 9103,
      "русском": 9104,
      "останется": 9105,
      "задумался": 9106,
      "квадрат": 9107,
      "огра": 9108,
      "тории": 9109,
      "депре": 9110,
      "продать": 9111,
      "перёд": 9112,
      "предмет": 9113,
      "круче": 9114,
      "ждал": 9115,
      "Отлично": 9116,
      "вопросом": 9117,
      "господин": 9118,
      "отсутствие": 9119,
      "умоляю": 9120,
      "32": 9121,
      "Шве": 9122,
      "ые": 9123,
      "заби": 9124,
      "льци": 9125,
      "тива": 9126,
      "мыми": 9127,
      "орёт": 9128,
      "служи": 9129,
      "строго": 9130,
      "классе": 9131,
      "Между": 9132,
      "БЫЛО": 9133,
      "Един": 9134,
      "ЖА": 9135,
      "Ильи": 9136,
      "дного": 9137,
      "…»": 9138,
      "мусо": 9139,
      "стин": 9140,
      "Ваше": 9141,
      "Тоже": 9142,
      "телевиде": 9143,
      "расскажу": 9144,
      "красивые": 9145,
      "минус": 9146,
      "чон": 9147,
      "стаби": 9148,
      "ссия": 9149,
      "шками": 9150,
      "будущем": 9151,
      "хлеба": 9152,
      "организо": 9153,
      "бке": 9154,
      "вновь": 9155,
      "житель": 9156,
      "воспо": 9157,
      "реали": 9158,
      "маску": 9159,
      "ческом": 9160,
      "вим": 9161,
      "размер": 9162,
      "верно": 9163,
      "друж": 9164,
      "нравятся": 9165,
      "Русские": 9166,
      "медицин": 9167,
      "Кот": 9168,
      "нным": 9169,
      "сцена": 9170,
      "откро": 9171,
      "льность": 9172,
      "сделаю": 9173,
      "создать": 9174,
      "режим": 9175,
      "зеркало": 9176,
      "системы": 9177,
      "ЕГЭ": 9178,
      "Эйн": 9179,
      "зр": 9180,
      "ие": 9181,
      "осторо": 9182,
      "матиче": 9183,
      "чел": 9184,
      "брата": 9185,
      "худож": 9186,
      "тельные": 9187,
      "слава": 9188,
      "ходим": 9189,
      "ставлять": 9190,
      "американских": 9191,
      "вшихся": 9192,
      "британ": 9193,
      "патриот": 9194,
      "Интернет": 9195,
      "¶¶¶¶": 9196,
      "IIIIIIII": 9197,
      "ФИ": 9198,
      "плачет": 9199,
      "танцу": 9200,
      "Американец": 9201,
      "профессо": 9202,
      "ворота": 9203,
      "директора": 9204,
      "названием": 9205,
      "Конституции": 9206,
      "познакоми": 9207,
      "рожда": 9208,
      "песня": 9209,
      "тыс": 9210,
      "всём": 9211,
      "Дом": 9212,
      "кругом": 9213,
      "хими": 9214,
      "Спе": 9215,
      "чными": 9216,
      "гора": 9217,
      "решить": 9218,
      "ладо": 9219,
      "телю": 9220,
      "рун": 9221,
      "Пора": 9222,
      "дым": 9223,
      "смогу": 9224,
      "долги": 9225,
      "Возь": 9226,
      "врат": 9227,
      "2021": 9228,
      "говне": 9229,
      "театр": 9230,
      "Особенно": 9231,
      "Аб": 9232,
      "камень": 9233,
      "гени": 9234,
      "метра": 9235,
      "стерство": 9236,
      "сентября": 9237,
      "44": 9238,
      "Бен": 9239,
      "Иса": 9240,
      "онера": 9241,
      "рэ": 9242,
      "уте": 9243,
      "познаком": 9244,
      "робот": 9245,
      "рика": 9246,
      "мигран": 9247,
      "меха": 9248,
      "присла": 9249,
      "бака": 9250,
      "Дело": 9251,
      "поймал": 9252,
      "Разве": 9253,
      "Кие": 9254,
      "БЕЗ": 9255,
      "Земля": 9256,
      "мамы": 9257,
      "втор": 9258,
      "дороже": 9259,
      "вайся": 9260,
      "карман": 9261,
      "собрались": 9262,
      "Бра": 9263,
      "умень": 9264,
      "боло": 9265,
      "соблю": 9266,
      "сборная": 9267,
      "геев": 9268,
      "енький": 9269,
      "выйдет": 9270,
      "груст": 9271,
      "соглас": 9272,
      "фамилию": 9273,
      "Обы": 9274,
      "плен": 9275,
      "уку": 9276,
      "посмотрите": 9277,
      "ведро": 9278,
      "приста": 9279,
      "пик": 9280,
      "няют": 9281,
      "получили": 9282,
      "Точно": 9283,
      "тельная": 9284,
      "трудо": 9285,
      "Стар": 9286,
      "Решили": 9287,
      "сегодняш": 9288,
      "покупает": 9289,
      "ЗИ": 9290,
      "авари": 9291,
      "пп": 9292,
      "почи": 9293,
      "чам": 9294,
      "страха": 9295,
      "учителя": 9296,
      "Сирии": 9297,
      "диване": 9298,
      "Вос": 9299,
      "Ии": 9300,
      "астро": 9301,
      "поможет": 9302,
      "посовето": 9303,
      "мошен": 9304,
      "рыбку": 9305,
      "Рекла": 9306,
      "похож": 9307,
      "Марья": 9308,
      "переименовать": 9309,
      "оружия": 9310,
      "клет": 9311,
      "рены": 9312,
      "матом": 9313,
      "руется": 9314,
      "нусь": 9315,
      "каждым": 9316,
      "красиво": 9317,
      "данным": 9318,
      "удивля": 9319,
      "бьет": 9320,
      "дешевле": 9321,
      "Глу": 9322,
      "КП": 9323,
      "нано": 9324,
      "новил": 9325,
      "отреза": 9326,
      "Зая": 9327,
      "банки": 9328,
      "умеют": 9329,
      "Спрашивает": 9330,
      "Итали": 9331,
      "жного": 9332,
      "лкой": 9333,
      "опу": 9334,
      "стены": 9335,
      "вынужден": 9336,
      "сижу": 9337,
      "пает": 9338,
      "разработ": 9339,
      "ителю": 9340,
      "сус": 9341,
      "детства": 9342,
      "Мари": 9343,
      "Кады": 9344,
      "!!!\"": 9345,
      "Минист": 9346,
      "объе": 9347,
      "стям": 9348,
      "Дима": 9349,
      "станции": 9350,
      "установили": 9351,
      "седатель": 9352,
      "Гитлер": 9353,
      "успоко": 9354,
      "выпу": 9355,
      "обнов": 9356,
      "рассматри": 9357,
      "проснулся": 9358,
      "Бол": 9359,
      "смех": 9360,
      "закона": 9361,
      "Вторая": 9362,
      "опас": 9363,
      "всту": 9364,
      "нo": 9365,
      "углу": 9366,
      "фре": 9367,
      "нарисо": 9368,
      "доби": 9369,
      "пад": 9370,
      "падение": 9371,
      "чую": 9372,
      "ссив": 9373,
      "будущего": 9374,
      "построить": 9375,
      "Хва": 9376,
      "прошла": 9377,
      "разобра": 9378,
      "жар": 9379,
      "трез": 9380,
      "формы": 9381,
      "достаёт": 9382,
      "еврея": 9383,
      "добрый": 9384,
      "выходные": 9385,
      "сериал": 9386,
      "классни": 9387,
      "ребёнка": 9388,
      "хватило": 9389,
      "Благода": 9390,
      "непо": 9391,
      "доступ": 9392,
      "отдох": 9393,
      "прико": 9394,
      "шат": 9395,
      "команды": 9396,
      "пальцем": 9397,
      "Пушкин": 9398,
      "ждёт": 9399,
      "напротив": 9400,
      "почувство": 9401,
      "ват": 9402,
      "выходить": 9403,
      "чужо": 9404,
      "арх": 9405,
      "труп": 9406,
      "спал": 9407,
      "смотрела": 9408,
      "вечерин": 9409,
      "Андрей": 9410,
      "спло": 9411,
      "уважае": 9412,
      "зацию": 9413,
      "рился": 9414,
      "выдержи": 9415,
      "Мате": 9416,
      "считается": 9417,
      "официаль": 9418,
      "занимаются": 9419,
      "известный": 9420,
      "благодаря": 9421,
      "Билл": 9422,
      "ист": 9423,
      "фар": 9424,
      "цман": 9425,
      "достой": 9426,
      "мок": 9427,
      "тилась": 9428,
      "скоре": 9429,
      "скажете": 9430,
      "глупы": 9431,
      "одея": 9432,
      "пьет": 9433,
      "золотой": 9434,
      "зрения": 9435,
      "официально": 9436,
      "»?": 9437,
      "Ельци": 9438,
      "Обо": 9439,
      "Шу": 9440,
      "гл": 9441,
      "голь": 9442,
      "забыли": 9443,
      "отпу": 9444,
      "второе": 9445,
      "каждом": 9446,
      "метал": 9447,
      "узнали": 9448,
      "поднял": 9449,
      "бассей": 9450,
      "Вон": 9451,
      "Дей": 9452,
      "Фин": 9453,
      "стря": 9454,
      "непре": 9455,
      "села": 9456,
      "Роско": 9457,
      "пустим": 9458,
      "результаты": 9459,
      "кладывает": 9460,
      "спортив": 9461,
      "86": 9462,
      "Тер": 9463,
      "чком": 9464,
      "стр": 9465,
      "задум": 9466,
      "выве": 9467,
      "жений": 9468,
      "Рай": 9469,
      "говорились": 9470,
      "средство": 9471,
      "принято": 9472,
      "пустыне": 9473,
      "Долго": 9474,
      "кризис": 9475,
      "?\",": 9476,
      "ймо": 9477,
      "чнее": 9478,
      "толе": 9479,
      "ниться": 9480,
      "речи": 9481,
      "женный": 9482,
      "ционной": 9483,
      "поехал": 9484,
      "довать": 9485,
      "жел": 9486,
      "Борис": 9487,
      "алкоголь": 9488,
      "естественно": 9489,
      "гаранти": 9490,
      "Много": 9491,
      "ушёл": 9492,
      "неправильно": 9493,
      "кона": 9494,
      "кад": 9495,
      "сможешь": 9496,
      "отвечать": 9497,
      "благодар": 9498,
      "Запад": 9499,
      "стену": 9500,
      "de13": 9501,
      "пенсионеров": 9502,
      "Израиль": 9503,
      "RRRR": 9504,
      "konde13": 9505,
      "МС": 9506,
      "пои": 9507,
      "льку": 9508,
      "буль": 9509,
      "ственном": 9510,
      "банку": 9511,
      "ительное": 9512,
      "спирт": 9513,
      "3333": 9514,
      "Большо": 9515,
      "чков": 9516,
      "ъя": 9517,
      "доне": 9518,
      "приве": 9519,
      "Пошли": 9520,
      "Было": 9521,
      "внезапно": 9522,
      "Глава": 9523,
      "лошади": 9524,
      "отказался": 9525,
      "борьбе": 9526,
      "дерьмо": 9527,
      "49": 9528,
      "ОНА": 9529,
      "ологи": 9530,
      "мака": 9531,
      "бат": 9532,
      "щено": 9533,
      "страной": 9534,
      "анс": 9535,
      "валют": 9536,
      "объявление": 9537,
      "любом": 9538,
      "Медведь": 9539,
      "образование": 9540,
      "отправить": 9541,
      "космонав": 9542,
      "pp": 9543,
      "тa": 9544,
      "фф": 9545,
      "неу": 9546,
      "годи": 9547,
      "дольше": 9548,
      "курен": 9549,
      "хота": 9550,
      "правила": 9551,
      "программи": 9552,
      "звук": 9553,
      "попробовать": 9554,
      "фамилии": 9555,
      "разговаривать": 9556,
      "Кремль": 9557,
      "удовлетво": 9558,
      "Йор": 9559,
      "Мона": 9560,
      "Тя": 9561,
      "рр": 9562,
      "чне": 9563,
      "наду": 9564,
      "зат": 9565,
      "шикар": 9566,
      "чья": 9567,
      "тельство": 9568,
      "судья": 9569,
      "пенсионный": 9570,
      ".)": 9571,
      "устал": 9572,
      "..***": 9573,
      "отдал": 9574,
      "мур": 9575,
      "Над": 9576,
      "перво": 9577,
      "зия": 9578,
      "Евровиде": 9579,
      "пускают": 9580,
      "любовью": 9581,
      "граждане": 9582,
      "летела": 9583,
      "прапорщик": 9584,
      "Китае": 9585,
      "нашла": 9586,
      "ителем": 9587,
      "класси": 9588,
      "русской": 9589,
      "черный": 9590,
      "ебали": 9591,
      "победил": 9592,
      "Новость": 9593,
      "кабинете": 9594,
      "ПЕР": 9595,
      "Игра": 9596,
      "лбу": 9597,
      "усили": 9598,
      "торов": 9599,
      "роско": 9600,
      "литься": 9601,
      "заправ": 9602,
      "мудак": 9603,
      "сапо": 9604,
      "гина": 9605,
      "перегово": 9606,
      "границу": 9607,
      "метр": 9608,
      "русским": 9609,
      "объеди": 9610,
      "красне": 9611,
      ":)": 9612,
      "Ав": 9613,
      "ЕР": 9614,
      "шники": 9615,
      "несу": 9616,
      "отды": 9617,
      "пира": 9618,
      "шашлы": 9619,
      "акция": 9620,
      "зим": 9621,
      "итая": 9622,
      "вопросов": 9623,
      "радостно": 9624,
      "оооооооо": 9625,
      "уровня": 9626,
      "тюрьме": 9627,
      "период": 9628,
      "Продавец": 9629,
      "Хуй": 9630,
      "вo": 9631,
      "никуда": 9632,
      "решает": 9633,
      "рики": 9634,
      "кинь": 9635,
      "чив": 9636,
      "рынке": 9637,
      "обща": 9638,
      "льности": 9639,
      "грамо": 9640,
      "консер": 9641,
      "ждали": 9642,
      "спортсме": 9643,
      "Слыхал": 9644,
      "Исто": 9645,
      "ФА": 9646,
      "испа": 9647,
      "кo": 9648,
      "кстати": 9649,
      "сади": 9650,
      "тридцать": 9651,
      "груди": 9652,
      "кричат": 9653,
      "мужчине": 9654,
      "настоящему": 9655,
      "церкви": 9656,
      ".╚═(███)═╝": 9657,
      "сеть": 9658,
      "увидев": 9659,
      "зас": 9660,
      "..╚═(███)═╝": 9661,
      "любую": 9662,
      "скать": 9663,
      "словно": 9664,
      "герой": 9665,
      "спас": 9666,
      "НАЯ": 9667,
      "МИД": 9668,
      "Девушки": 9669,
      "Алексей": 9670,
      "Горба": 9671,
      "деятельно": 9672,
      "рена": 9673,
      "середи": 9674,
      "купили": 9675,
      "тность": 9676,
      "считал": 9677,
      "гроз": 9678,
      "согласен": 9679,
      "комнаты": 9680,
      "бьют": 9681,
      "Слышал": 9682,
      "каждое": 9683,
      "коридо": 9684,
      "старости": 9685,
      "Hу": 9686,
      "чники": 9687,
      "вырос": 9688,
      "отдать": 9689,
      "шер": 9690,
      "банков": 9691,
      "хуйня": 9692,
      "улицы": 9693,
      "довольный": 9694,
      "подруга": 9695,
      "?...": 9696,
      "НР": 9697,
      "Плю": 9698,
      "постра": 9699,
      "карь": 9700,
      "вину": 9701,
      "бедно": 9702,
      "...╚═(███)═╝": 9703,
      "превы": 9704,
      "практи": 9705,
      "сыр": 9706,
      "расста": 9707,
      "Капитан": 9708,
      "гея": 9709,
      "специаль": 9710,
      "Мир": 9711,
      "ходила": 9712,
      "ставляют": 9713,
      "лежат": 9714,
      "кирпи": 9715,
      "звёз": 9716,
      "мудрость": 9717,
      "Стре": 9718,
      "еби": 9719,
      "упала": 9720,
      "чее": 9721,
      "разло": 9722,
      "Коман": 9723,
      "россии": 9724,
      "Ребята": 9725,
      "пытаются": 9726,
      "начнут": 9727,
      "автобусе": 9728,
      "сном": 9729,
      "ниж": 9730,
      "логов": 9731,
      "бои": 9732,
      "песси": 9733,
      "водят": 9734,
      "остальных": 9735,
      "считаю": 9736,
      "ребёнок": 9737,
      "ЭЭЭЭ": 9738,
      "Алё": 9739,
      "Рим": 9740,
      "усы": 9741,
      "тились": 9742,
      "Дела": 9743,
      "трудом": 9744,
      "Петя": 9745,
      "американские": 9746,
      "продуктов": 9747,
      "взгляд": 9748,
      "чемодан": 9749,
      "портозаме": 9750,
      "ящик": 9751,
      "вились": 9752,
      "прибли": 9753,
      "Валу": 9754,
      "стые": 9755,
      "молоко": 9756,
      "сант": 9757,
      "продавец": 9758,
      "встрече": 9759,
      "сайт": 9760,
      "понравилось": 9761,
      "сообщил": 9762,
      "Встретились": 9763,
      "сиськи": 9764,
      "Лё": 9765,
      "сходить": 9766,
      "порядок": 9767,
      "бовали": 9768,
      "раздра": 9769,
      "победу": 9770,
      "параш": 9771,
      "доллара": 9772,
      "любовник": 9773,
      "ru": 9774,
      "РП": 9775,
      "несли": 9776,
      "код": 9777,
      "момента": 9778,
      "таль": 9779,
      "винов": 9780,
      "странах": 9781,
      "мерз": 9782,
      "начальника": 9783,
      "ТЕЛЬ": 9784,
      "зовите": 9785,
      "события": 9786,
      "унитаз": 9787,
      "сби": 9788,
      "уйти": 9789,
      "войне": 9790,
      "ответа": 9791,
      "дядя": 9792,
      "Видимо": 9793,
      "летают": 9794,
      "движения": 9795,
      "приняли": 9796,
      "Крыма": 9797,
      "совесть": 9798,
      "бороться": 9799,
      "Хотите": 9800,
      "похме": 9801,
      "Пожалуйста": 9802,
      "85": 9803,
      "СВО": 9804,
      "дён": 9805,
      "ибо": 9806,
      "тором": 9807,
      "ходов": 9808,
      "батя": 9809,
      "нией": 9810,
      "Некоторые": 9811,
      "жусь": 9812,
      "сквозь": 9813,
      "скучно": 9814,
      "порту": 9815,
      "операции": 9816,
      "третьего": 9817,
      "угол": 9818,
      "Жил": 9819,
      "НД": 9820,
      "гне": 9821,
      "зз": 9822,
      "фразы": 9823,
      "делом": 9824,
      "достав": 9825,
      "прочита": 9826,
      "лететь": 9827,
      "крест": 9828,
      "РОТ": 9829,
      "выражение": 9830,
      "Кремле": 9831,
      "сумму": 9832,
      "пенсионного": 9833,
      "ow": 9834,
      "ЩА": 9835,
      "одет": 9836,
      "поду": 9837,
      "поворачивается": 9838,
      "леса": 9839,
      "меро": 9840,
      "курит": 9841,
      "бурет": 9842,
      "работали": 9843,
      "молодая": 9844,
      "церковь": 9845,
      "килограм": 9846,
      "заканчивается": 9847,
      "понедельник": 9848,
      "Анекдот": 9849,
      "гинеколо": 9850,
      "96": 9851,
      "Юрий": 9852,
      "поговорить": 9853,
      "реда": 9854,
      "лав": 9855,
      "дочку": 9856,
      "вишь": 9857,
      "старые": 9858,
      "шали": 9859,
      "целью": 9860,
      "Недавно": 9861,
      "новом": 9862,
      "понимать": 9863,
      "Латви": 9864,
      "сексуали": 9865,
      "искрен": 9866,
      "россиянам": 9867,
      "яйцо": 9868,
      "ардесса": 9869,
      "400": 9870,
      "me": 9871,
      "йф": 9872,
      "роде": 9873,
      "вольно": 9874,
      "лейте": 9875,
      "мата": 9876,
      "прокля": 9877,
      "Кали": 9878,
      "начало": 9879,
      "Буду": 9880,
      "НИЯ": 9881,
      "поднимается": 9882,
      "nd": 9883,
      "Пять": 9884,
      "сидишь": 9885,
      "примеру": 9886,
      "положить": 9887,
      "испыты": 9888,
      "ic": 9889,
      "насколько": 9890,
      "дачу": 9891,
      "види": 9892,
      "ходом": 9893,
      "Покупа": 9894,
      "рях": 9895,
      "полтора": 9896,
      "попадает": 9897,
      "Мужчины": 9898,
      "чом": 9899,
      "тюрьму": 9900,
      "вперед": 9901,
      "емый": 9902,
      "ваний": 9903,
      "запомни": 9904,
      "заказ": 9905,
      "Могу": 9906,
      "Бегемо": 9907,
      "делец": 9908,
      "Верхов": 9909,
      "растеря": 9910,
      "брь": 9911,
      "заказа": 9912,
      "бегать": 9913,
      "жаться": 9914,
      "ленная": 9915,
      "слушайте": 9916,
      "нашему": 9917,
      "задание": 9918,
      "Молодец": 9919,
      "сигареты": 9920,
      "БЭБЭБЭБЭ": 9921,
      "остров": 9922,
      "оооооооооо": 9923,
      "КХ": 9924,
      "дным": 9925,
      "исправ": 9926,
      "раком": 9927,
      "номе": 9928,
      "висит": 9929,
      "бам": 9930,
      "сках": 9931,
      "дыду": 9932,
      "хорош": 9933,
      "))))": 9934,
      "Комментарий": 9935,
      "Спо": 9936,
      "Хи": 9937,
      "капу": 9938,
      "задумы": 9939,
      "тиков": 9940,
      "ляция": 9941,
      "приезжает": 9942,
      "ванные": 9943,
      "фабри": 9944,
      "смеются": 9945,
      "пожало": 9946,
      "серви": 9947,
      "Кирил": 9948,
      "поставили": 9949,
      "музыкан": 9950,
      "вашему": 9951,
      "Ого": 9952,
      "кл": 9953,
      "прибы": 9954,
      "цара": 9955,
      "смогут": 9956,
      "ющими": 9957,
      "Гол": 9958,
      "крик": 9959,
      "Видишь": 9960,
      "пьем": 9961,
      "программы": 9962,
      "сообщения": 9963,
      "временем": 9964,
      "бры": 9965,
      "дается": 9966,
      "модель": 9967,
      "вскую": 9968,
      "феминист": 9969,
      "Самая": 9970,
      "ющему": 9971,
      "курса": 9972,
      "отличие": 9973,
      "операцию": 9974,
      "Байдена": 9975,
      "Абрамо": 9976,
      "пистолет": 9977,
      "Роскосмо": 9978,
      "Win": 9979,
      "Гон": 9980,
      "жён": 9981,
      "сфе": 9982,
      "раска": 9983,
      "застре": 9984,
      "кусо": 9985,
      "сково": 9986,
      "глупо": 9987,
      "всякие": 9988,
      "демократии": 9989,
      "Понятно": 9990,
      "впечатление": 9991,
      "Илья": 9992,
      "Пси": 9993,
      "юре": 9994,
      "рали": 9995,
      "почка": 9996,
      "немедленно": 9997,
      "годом": 9998,
      "референ": 9999,
      "комит": 10000,
      "получит": 10001,
      "крем": 10002,
      "последней": 10003,
      "анекдотов": 10004,
      "Чапа": 10005,
      "компьюте": 10006,
      "концерт": 10007,
      "МВД": 10008,
      "пень": 10009,
      "мони": 10010,
      "выр": 10011,
      "санти": 10012,
      "расскажи": 10013,
      "скорость": 10014,
      "ООН": 10015,
      "ГИБ": 10016,
      "огур": 10017,
      "Анатольевич": 10018,
      "гo": 10019,
      "юмора": 10020,
      "наг": 10021,
      "новей": 10022,
      "черт": 10023,
      "гав": 10024,
      "библи": 10025,
      "Маск": 10026,
      "возника": 10027,
      "стера": 10028,
      "черно": 10029,
      "умереть": 10030,
      "требуют": 10031,
      "музыку": 10032,
      "прокуро": 10033,
      "соревно": 10034,
      "старого": 10035,
      "привя": 10036,
      "брала": 10037,
      "полицию": 10038,
      "парла": 10039,
      "последних": 10040,
      "НИЕ": 10041,
      "шанс": 10042,
      "Гал": 10043,
      "очки": 10044,
      "тку": 10045,
      "нена": 10046,
      "мально": 10047,
      "Начина": 10048,
      "стояние": 10049,
      "русская": 10050,
      "карту": 10051,
      "останавливает": 10052,
      "документы": 10053,
      "!».": 10054,
      "Спустя": 10055,
      "подели": 10056,
      "роят": 10057,
      "заявление": 10058,
      "сесть": 10059,
      "сахар": 10060,
      "шести": 10061,
      "красно": 10062,
      "зой": 10063,
      "больной": 10064,
      "НОЙ": 10065,
      "последнего": 10066,
      "встречи": 10067,
      "замечает": 10068,
      "постель": 10069,
      "посадили": 10070,
      "килограмм": 10071,
      "Смотрит": 10072,
      "Водитель": 10073,
      "wi": 10074,
      "ЗНА": 10075,
      "Пы": 10076,
      "Спи": 10077,
      "дость": 10078,
      "проек": 10079,
      "индей": 10080,
      "представить": 10081,
[...]
